65
06
6F
0F
0B
0E
63
00
65
6D
67
00
17
02
16
13
71
09
0F
64
04
12
73
78
6A
70
6F
12
13
10
03
68
14
65
1D
01
6A
19
19
7C
62
00
21
0B
14
1C
69
69
64
11
70
75
6D
12
0F
64
6D
1C
79
74
65
02
10
05
7E
79
14
6E
00
05
0E
74
18
78
08
06
68
6F
08
19
78
03
6E
7D
02
70
00
66
7B
7F
74
05
68
14
71
18
6D
66
19
68
17
6D
13
6B
64
7B
1B
6A
63
1A
05
10
07
12
6A
79
78
17
06
75
7C
00
74
66
09
21
64
0C
0A
11
7E
73
6F
6E
03
74
71
7B
07
70
03
6E
72
0F
16
74
11
7A
19
76
01
6A
15
12
07
12
20
75
75
0A
11
6C
1B
6F
6C
6D
74
00
01
00
00
11
6B
72
64
74
7D
0E
0E
76
65
09
7F
6F
6B
20
6B
6A
06
14
7C
6F
09
15
62
7B
69
0F
75
68
0D
10
06
16
07
67
74
77
7C
73
17
17
1A
11
03
60
69
63
12
77
6C
68
67
70
0F
7B
63
03
71
02
6F
6E
6F
1B
14
70
16
7A
03
6E
10
7C
00
74
61
02
6E
0C
02
7B
79
0B
6C
12
00
68
72
7A
00
16
7B
66
7F
66
63
1C
70
6A
12
78
07
79
0D
1A
11
18
0D
0D
09
05
69
00
1B
0E
1F
75
70
63
15
17
62
7A
09
0E
7B
0E
0B
1B
04
7D
66
0E
6A
20
04
7B
0B
24
13
70
67
7E
70
7C
7A
01
07
19
05
11
66
05
70
7E
72
78
75
66
13
66
74
65
0F
7D
6E
04
08
7E
01
0B
71
79
0B
7C
09
71
7E
05
1D
12
79
7B
0F
6D
73
62
7C
0C
0B
7D
0D
69
00
0F
16
7C
18
7D
13
61
64
6D
6F
6F
66
70
7B
22
6C
6E
17
0C
64
7B
72
06
66
14
06
0D
09
71
73
6D
64
0D
64
67
04
0B
68
7F
78
7E
6C
12
70
72
12
1A
79
7C
09
70
76
6A
69
64
6C
09
62
6C
0B
03
6B
6D
1A
6C
1B
0D
04
18
65
73
76
1C
0B
7F
12
0D
70
76
0C
5F
06
19
6B
10
6B
08
14
7A
0A
76
63
13
15
17
10
79
1A
05
67
7B
06
66
76
0A
73
78
6A
00
74
71
68
03
12
13
09
68
04
1A
71
7A
0D
02
14
0A
7E
68
0D
7D
19
1B
6F
0D
63
73
0B
1D
6B
19
10
11
1B
03
78
18
12
06
70
0A
6E
00
75
7D
6A
6F
12
75
67
71
00
77
6F
0B
6A
63
13
16
71
15
63
75
12
7B
13
7F
6E
17
1D
70
13
60
15
6F
66
60
05
7E
72
0A
75
19
10
17
7D
1D
61
19
6E
64
7C
0A
73
7A
10
67
74
01
0B
01
67
1D
6F
0A
17
07
78
1A
64
7B
6C
6D
74
69
13
04
79
01
10
17
75
63
74
6C
0A
77
06
60
18
7C
16
17
1D
0E
7F
17
0D
7E
01
12
70
77
66
74
00
74
6B
09
6E
05
16
72
04
62
07
16
7A
1E
7D
68
72
1D
76
64
67
1F
72
7F
65
06
70
02
19
75
77
05
76
11
02
71
0F
6E
7F
18
72
66
19
73
1A
68
1B
67
07
7D
12
75
6D
75
0F
7F
07
06
76
14
7E
0D
18
71
7B
06
0D
7A
78
74
0B
72
78
71
74
12
78
70
0E
68
77
16
6F
6B
73
20
63
70
19
75
71
19
07
00
70
77
0C
17
67
14
07
6C
76
0D
73
09
16
77
12
74
01
7D
17
06
69
0B
76
6D
6A
0F
19
7A
18
6A
6E
13
1A
77
63
7D
0C
0E
0D
7D
6E
17
7A
61
7F
1B
0D
24
61
0D
6F
09
79
6D
09
03
17
67
01
7C
05
6C
1A
66
15
16
0E
09
0E
6A
11
66
0F
01
79
1B
23
1B
70
73
01
7C
79
6E
67
0F
74
21
68
79
19
65
62
67
6C
05
02
7D
19
6C
13
64
74
13
76
05
6D
75
64
73
78
18
7A
06
7D
00
6C
08
73
7E
08
6B
14
02
77
08
7E
6E
0E
6C
72
13
1C
12
0A
70
1B
78
68
0E
00
0F
06
05
78
62
0F
13
07
14
06
21
71
0B
73
0F
77
62
75
15
7E
02
66
78
07
7C
05
0F
6C
19
0C
0E
00
19
15
1F
64
64
15
09
18
64
06
73
16
67
0B
7C
19
7A
6F
63
6E
00
04
1B
75
18
68
65
64
68
75
66
14
6D
05
7F
07
61
78
03
79
13
1A
10
1A
6F
79
6B
66
04
09
08
10
7E
1C
67
00
0F
7F
6B
74
14
0C
6E
7F
6D
74
1D
0C
0F
67
6D
73
65
08
16
63
7F
1A
0A
02
08
76
73
5F
11
7A
0A
7D
1B
0A
0F
6C
7E
12
77
73
6D
02
6D
7C
0F
0F
66
1C
18
6D
7D
72
0F
7B
11
67
18
18
05
0B
03
08
62
03
09
77
04
0A
1C
6D
7E
66
7C
7E
1F
18
0B
65
1B
01
69
11
7B
0C
7C
7F
6D
0C
09
0C
6B
08
68
74
70
07
7A
73
00
69
6F
15
79
04
67
18
79
1A
77
0B
63
1A
0B
1B
70
6B
63
0D
79
07
19
08
7F
17
07
7B
64
6E
65
04
11
13
04
78
60
68
11
60
0E
15
74
0D
79
05
08
72
1B
79
0A
04
77
05
7E
64
6B
15
01
0B
68
1A
13
73
1D
16
6A
7B
02
10
0D
0D
64
04
67
16
6D
7B
08
05
67
07
06
75
6D
07
7D
7D
74
04
1A
04
01
0C
6A
1A
72
1A
03
6A
14
06
6B
7C
14
70
01
07
00
73
67
77
74
07
14
67
05
74
02
02
66
63
08
74
65
6E
7D
10
18
15
1C
01
04
13
71
12
66
1C
67
72
7A
7D
73
13
13
05
06
65
19
0E
6F
77
64
6E
22
0E
7B
08
06
03
02
18
75
0D
64
6A
0E
05
72
76
01
07
75
06
06
7E
07
66
14
79
08
6C
6C
14
10
6F
7B
01
64
63
04
6F
0D
7B
6D
01
7E
75
66
76
77
12
7F
78
07
72
6F
7E
18
14
6E
15
14
7E
11
0D
01
67
76
63
6B
10
65
6F
0F
67
1A
0D
77
7E
18
69
08
72
68
10
04
66
12
02
69
73
70
15
74
0D
08
1A
69
63
14
05
1A
6E
79
77
0D
6C
08
7A
7C
1D
66
7D
7B
67
03
06
6F
77
0B
06
17
78
15
1B
19
10
0B
7F
77
6C
6D
1C
07
6B
65
66
65
6A
04
64
14
10
23
73
10
0F
72
1C
1D
6C
78
18
1A
10
63
66
63
67
18
73
11
09
79
61
69
13
03
7B
13
14
02
11
67
78
67
68
75
63
79
0E
6C
7E
14
0D
70
6B
18
13
79
70
7A
18
72
18
7B
75
18
76
76
1C
69
6B
19
79
11
6A
7C
02
16
09
00
14
1E
08
7A
64
0E
78
74
17
16
03
72
0A
7A
04
16
09
19
77
00
7C
16
07
76
7A
00
1B
7D
7D
13
71
18
19
68
7D
69
6E
0F
69
67
05
12
1D
62
71
79
14
75
05
0F
21
09
07
10
15
6C
7F
6E
1B
16
05
71
63
00
11
04
01
14
7E
1D
6E
7D
0B
0E
16
08
0E
15
6F
69
0D
77
0F
0C
7C
6D
09
77
13
64
0C
11
72
6A
10
74
6A
19
78
02
6D
1A
79
07
73
17
0E
0C
04
1A
0D
1D
1C
0F
75
7A
76
18
14
10
64
7F
60
7D
0B
12
6E
6D
75
76
66
67
0B
0C
7F
0C
0E
05
13
6E
76
14
13
16
73
72
10
6F
7D
0F
75
10
7A
0C
18
72
78
17
17
6A
76
66
10
6B
75
0C
06
6D
63
68
11
18
15
02
14
23
1C
6D
7B
10
63
14
7C
14
71
0C
76
76
61
19
03
02
6C
71
7A
73
68
6C
72
0F
78
02
69
05
0F
65
05
1A
05
06
78
0E
12
70
07
05
08
76
0C
6A
66
7D
07
72
0C
70
71
09
1F
0F
6A
13
78
72
61
78
15
68
78
73
78
71
05
68
0E
01
69
78
02
77
77
7F
1A
72
62
0D
0A
08
02
10
75
05
7D
72
03
6C
71
70
16
7C
76
75
69
7D
72
7C
19
15
02
0E
07
16
1E
79
16
07
0E
0E
7A
08
65
11
04
05
66
09
11
6A
6C
09
0C
65
7E
14
0A
7A
18
6E
6F
11
15
7C
16
7A
7C
14
75
23
71
13
7D
0F
06
6F
14
1B
0A
1A
0B
13
11
7C
7E
66
02
0E
08
75
7D
01
0A
74
72
10
1A
02
15
73
0A
73
02
72
6C
0E
0C
06
1F
78
04
04
17
17
0D
09
78
1A
11
19
6E
69
19
17
73
67
15
0E
7E
00
71
19
11
17
5E
13
16
7F
06
6C
76
6F
0B
75
15
77
17
0A
19
6F
08
77
0F
6E
73
01
02
0C
79
10
0A
7B
0B
03
6D
13
68
0A
65
01
79
79
7B
7C
7F
76
74
79
71
0F
7A
1A
66
0C
72
6E
20
1B
69
70
73
20
1B
0D
67
7B
73
79
73
6C
10
07
19
00
08
13
7C
72
78
17
6A
79
79
71
70
07
04
7D
79
78
6E
68
7B
76
74
15
09
01
6F
6D
12
5F
74
66
79
7F
14
7A
74
14
0F
05
07
15
06
6F
0B
78
15
7C
17
68
05
0C
15
69
76
03
08
08
7A
19
68
68
15
7C
77
08
13
10
13
71
19
7B
65
0B
71
72
0D
74
14
72
6B
12
68
05
12
14
01
09
22
64
6D
73
05
11
05
6B
67
77
00
76
78
7F
03
01
70
6C
08
10
09
15
7E
0A
7F
67
0C
1A
14
00
6F
12
7E
14
78
0B
6F
7A
1A
17
03
64
72
6E
6F
18
72
65
0F
19
14
64
7B
01
77
72
1A
72
02
71
77
71
78
06
7D
13
7B
7D
64
5F
7F
02
0F
0A
1F
74
63
6A
6D
76
04
67
6B
7A
7B
01
76
69
24
00
0B
76
04
7F
03
69
0D
05
63
7E
01
01
69
6B
11
6A
11
03
67
0F
17
76
6C
67
6E
75
72
0B
0C
16
7D
16
0F
15
0B
02
7D
75
75
19
10
09
13
6B
0D
7E
6E
07
1B
00
14
67
0B
73
1A
78
19
7B
19
0B
6E
6A
02
74
72
0E
10
76
0F
63
08
17
16
1C
73
7A
7E
1E
72
69
0E
1E
14
10
73
63
74
68
0F
7E
02
07
7C
66
6C
02
6D
13
76
00
00
68
1D
19
19
10
02
0F
00
6A
69
68
22
02
19
79
03
0A
72
7B
19
66
6E
08
09
14
21
7D
1C
12
6D
6E
64
79
7A
11
68
7F
60
72
15
21
64
67
19
0A
76
74
7F
10
71
73
7E
6F
13
6A
77
7C
17
6A
6B
0E
78
13
7C
7F
74
66
65
13
04
66
03
05
6F
7B
0E
7B
77
76
0F
1A
74
6C
6E
03
76
77
0B
6B
7C
67
0C
13
11
69
07
0E
16
0E
13
76
6D
15
09
7B
11
6C
11
6D
6B
18
7F
75
0A
77
03
15
76
64
1A
63
64
79
16
1A
12
74
10
7C
0C
75
69
15
17
6F
63
68
74
11
76
11
04
08
04
70
11
6A
7E
18
09
7E
16
6E
6E
02
01
70
77
0C
12
15
0A
0F
75
7A
12
73
7E
7D
6E
65
68
07
7C
70
02
17
7D
7A
76
10
0B
7B
6E
0A
13
08
67
6B
18
67
68
79
09
00
7E
1C
15
72
13
1B
68
7B
15
20
67
68
65
68
17
01
13
19
03
7C
06
09
0C
0B
19
7B
6B
1B
78
72
6A
01
6E
07
63
75
0C
7F
09
6F
6A
79
19
7F
7E
0B
0E
6B
73
68
6E
6D
6B
66
73
67
7C
02
15
6D
70
04
6C
63
0F
63
6B
07
6E
6E
69
7F
71
0C
11
08
72
0C
7F
0A
76
77
04
20
1C
6A
1A
6F
6C
7B
6A
00
70
10
01
16
06
07
05
13
7A
75
62
78
05
07
69
64
7B
0D
62
67
17
03
79
07
65
11
02
1A
76
7B
0F
72
0B
6F
75
72
7F
1B
69
67
6B
01
74
04
6F
79
7F
72
7C
15
7D
75
7A
69
0A
20
0D
08
6D
67
7A
17
71
72
05
73
6B
7E
7D
00
17
60
79
16
63
08
04
07
00
13
00
03
19
0A
17
1A
70
7D
76
18
71
76
0E
18
70
09
02
69
16
7E
09
78
65
7F
6F
14
79
04
6F
79
1A
66
78
12
13
71
67
67
63
7E
19
0B
13
77
0D
0D
0E
6C
1B
18
75
1E
7F
1E
14
15
05
09
68
6E
6D
0C
09
6D
0E
05
16
0C
68
0A
10
0C
6D
13
64
6E
00
67
74
04
7D
6B
71
02
64
7E
77
0B
6F
05
70
19
6F
14
7E
6A
79
0A
6B
77
71
0F
6F
02
68
09
0E
10
7C
00
09
14
13
0F
09
75
01
71
6F
7A
05
10
00
75
05
72
14
63
7C
0F
7B
11
68
67
15
6E
7A
7B
1B
6C
6D
72
6E
1A
07
6F
73
14
67
67
11
04
63
1B
6B
63
68
75
1A
1A
77
68
71
61
64
77
6C
09
7F
0E
1E
0F
7B
78
07
11
6F
1B
6F
16
6E
02
70
0F
15
76
76
06
76
18
16
66
16
0C
11
70
0B
11
6B
18
14
69
00
6E
64
11
7F
66
08
68
21
13
1C
13
09
11
1C
14
63
79
0D
7D
6E
66
03
63
01
14
05
1A
03
0D
09
12
0B
08
01
1C
77
7C
10
01
07
1E
7E
1E
76
07
0B
6B
14
6C
0D
1E
07
7D
6C
7E
62
69
14
64
05
0C
7D
0A
1B
7B
1B
05
7A
7F
7B
70
77
17
76
6B
0D
69
1A
04
13
62
1C
0F
1B
19
64
01
0F
7E
65
63
12
1C
6C
09
19
0E
0F
7E
6B
6D
75
12
07
0E
7A
14
6B
14
08
00
1B
12
0B
78
12
7B
71
11
63
6F
7B
18
5D
0B
06
7B
05
72
6E
79
62
78
00
06
78
0C
0D
7C
65
57
6D
7E
7F
74
23
6B
7B
6D
5B
0A
79
6F
63
6A
09
1E
03
06
29
66
63
18
69
09
0B
60
01
10
73
10
0D
69
65
1B
04
7C
08
72
11
14
6D
66
7D
76
67
0D
5F
7E
0A
17
6F
62
70
16
07
6E
15
69
23
71
6C
08
19
7D
6E
6B
15
07
26
6A
65
75
73
03
06
07
66
1A
6B
27
08
7F
1B
15
0A
11
12
1C
1B
77
7F
28
6C
75
5D
5F
0E
1F
6A
77
01
75
72
6B
1A
15
16
05
79
02
5B
6A
03
1B
01
78
18
79
74
0E
7B
7A
79
6A
04
7D
69
06
0A
6A
77
1A
20
0D
0C
0A
5C
01
62
63
68
11
03
20
0F
08
74
76
68
6B
7F
27
12
7F
09
19
64
06
5E
5D
71
7C
7B
08
01
1F
68
02
03
7E
69
67
16
7F
05
6F
63
6E
64
79
19
1A
6F
7A
07
1A
7B
64
71
74
70
64
04
04
0C
08
17
79
65
6E
7B
00
14
15
6E
1B
7A
15
6B
7D
05
69
78
64
03
02
0A
0A
12
78
79
06
7A
67
0B
19
0C
10
79
1A
70
65
0C
6D
6C
79
76
75
76
77
01
04
08
09
7F
72
0C
0A
11
67
77
1C
70
74
05
6B
68
12
02
7F
73
79
14
0B
05
70
7A
0C
18
7C
01
1C
03
11
13
0B
15
1C
74
14
65
63
10
1C
79
27
78
5D
0F
1F
08
65
7F
18
17
7D
6F
04
08
76
00
67
15
1B
6E
69
67
06
74
65
7A
03
7D
64
07
0B
7F
79
10
0C
10
1B
10
77
1B
18
12
66
00
0C
05
06
70
65
0B
73
05
7B
76
6A
0A
6F
68
75
68
75
6F
1C
11
70
16
18
67
15
05
7A
10
7F
72
63
06
78
66
7B
0B
63
19
13
08
6E
0E
6A
7B
73
6B
06
15
71
1B
05
69
0F
77
70
1D
1B
7A
0A
6E
15
7F
18
12
64
79
10
1A
71
67
14
68
6F
06
7B
79
67
74
0A
7E
64
0B
18
08
7B
0D
0E
6D
02
6E
77
10
18
67
05
0D
07
66
0E
7B
17
71
18
04
05
7D
0E
64
67
6F
05
0C
7D
6E
0C
69
09
7E
0F
14
15
7E
66
15
67
72
6E
00
0C
15
1A
63
6F
77
74
6A
19
0A
15
75
1C
61
70
06
10
15
6C
17
1A
0A
6A
05
7E
76
0C
0F
79
06
15
7A
0E
64
0E
72
78
03
65
10
0C
0D
76
6A
0E
15
6E
79
02
7B
10
69
0A
66
0D
69
00
65
12
6B
08
7D
72
14
73
0E
12
70
0F
00
16
11
02
6A
08
76
06
1A
07
70
14
6F
7A
66
0E
74
68
6F
6F
76
1B
7A
74
6E
14
7F
7E
0C
7F
7F
6D
0F
0F
18
0B
03
0B
71
12
6D
0C
6D
7D
19
7F
76
05
03
16
02
15
6A
13
71
1B
69
7E
14
08
76
17
0C
1B
7D
1D
1D
7A
0D
01
19
15
71
09
70
7F
6A
08
6E
1B
78
13
66
6F
68
16
18
6C
0B
70
64
7F
0F
14
63
7C
11
0C
1A
6B
6B
0F
6C
69
00
10
7E
6F
16
7D
75
64
70
64
7F
67
0B
76
05
06
78
66
02
7D
7F
12
73
16
02
7F
67
7B
19
11
64
7D
0A
0D
75
07
6D
0D
0C
20
18
7F
10
77
02
6E
07
75
00
6F
7E
79
74
08
11
17
63
7F
14
01
74
0D
09
00
11
04
19
07
0B
6F
17
7D
0E
6C
64
76
13
7A
7C
17
19
71
00
7E
13
65
67
6D
76
79
76
77
04
00
78
79
7B
14
03
74
76
18
68
79
07
6E
6F
1D
10
71
02
01
77
7F
6A
0F
15
0B
03
69
77
0A
03
12
07
6D
1A
02
09
7B
79
6A
21
68
7C
0E
6A
62
76
6D
04
77
0C
03
03
6D
11
79
19
77
76
7E
03
02
7D
72
08
17
7D
05
15
72
7C
16
79
02
64
7C
68
0C
17
78
70
7C
0C
08
6E
03
71
05
7E
0D
7C
76
6F
05
7B
68
6E
0C
18
6F
19
73
1E
64
17
6A
00
7C
73
08
1B
09
7C
6A
1F
17
0C
15
78
74
71
19
10
0D
18
1A
12
70
1C
08
15
7D
08
70
01
06
68
0E
76
75
19
6C
7A
0C
61
6A
71
17
70
17
13
0B
00
69
76
67
6A
05
16
1A
77
13
12
7A
64
08
0D
77
12
6F
6A
6F
15
70
1A
6B
06
12
1D
7E
78
64
7B
05
7B
6A
72
69
69
69
1C
71
15
06
7A
7F
7F
16
1A
15
6D
01
0F
0B
79
65
0C
13
0D
7C
64
1F
6A
7D
09
6A
03
19
7D
7D
14
73
03
71
6A
15
14
18
06
79
75
16
12
72
71
18
67
6D
07
7D
0C
04
05
6A
14
10
78
00
7A
7B
67
16
16
6F
6B
08
76
64
02
06
6B
09
0D
7E
06
1D
12
0D
71
75
11
0F
0D
7B
78
00
0F
01
62
0C
73
17
67
07
6F
05
08
00
18
0B
00
15
66
19
1F
7A
04
06
1C
6A
6A
70
65
75
71
01
11
1E
6D
76
7F
0D
10
6D
0B
7F
62
77
6C
13
6D
0A
65
06
74
0D
73
16
0D
0C
12
03
14
73
7D
17
04
71
72
1B
63
73
13
71
16
7E
03
0F
6E
02
6B
1C
63
00
68
6B
04
01
66
65
09
04
6A
6E
6C
12
75
03
1C
61
07
74
7D
14
0E
04
78
7A
15
63
19
68
66
07
02
0B
04
0E
71
7A
06
64
18
0F
18
79
09
11
74
1D
15
09
7A
70
78
63
7E
16
68
0C
65
09
7C
6C
18
65
6D
04
19
0A
02
63
7C
74
10
67
18
1C
17
7D
6C
11
10
0B
09
78
6C
01
0F
67
04
16
00
79
02
7F
63
7D
12
68
64
68
72
07
72
65
75
20
7E
07
18
08
1B
71
12
18
15
16
17
72
19
79
7A
73
6B
73
09
76
0D
6C
7E
1C
09
12
77
75
19
71
10
17
17
0F
69
78
1A
7F
67
04
04
08
04
14
74
7E
6D
62
10
75
18
16
01
07
24
73
0A
09
79
1F
7E
76
10
73
0B
08
11
77
6B
12
79
03
16
04
7D
66
67
0D
0F
1C
77
7C
6A
0F
03
7E
0F
00
04
10
0C
16
22
13
29
7F
7F
7F
07
59
79
75
7B
6F
15
16
71
14
6E
1B
04
7C
00
11
6A
77
15
73
26
15
79
07
77
0D
7F
6D
72
0F
18
73
10
5A
76
26
1A
5F
1C
7B
64
1B
00
67
02
17
67
17
08
67
6E
17
05
6A
76
7A
09
06
77
0A
15
70
0B
6D
00
75
06
7A
08
0E
07
6B
03
66
7C
63
72
71
62
67
02
13
15
0E
18
6B
0D
7A
66
78
05
72
5C
13
13
28
62
00
03
18
01
0D
6C
09
70
11
66
68
00
14
65
68
0F
1B
0D
73
16
18
04
6F
6F
0A
20
1A
15
76
13
72
11
7C
64
79
65
70
15
18
66
0E
04
08
02
6D
6E
79
7C
28
64
6B
77
0A
19
08
7F
0C
79
7A
6B
27
15
76
67
58
6D
0E
66
06
75
15
02
74
0D
7F
0E
79
04
67
75
17
76
6C
06
68
08
0B
12
6C
7F
0D
03
76
1A
6B
66
5C
17
7F
70
77
75
70
10
0E
0E
07
17
6B
69
10
06
13
15
0D
7B
6B
79
68
6A
0F
73
0C
61
73
7C
16
6B
75
6A
0C
1A
60
7F
13
7E
0D
07
72
10
05
71
11
70
16
0B
66
6A
7B
7F
7E
68
0D
0F
6B
1E
0C
09
6D
71
03
7D
06
14
72
0C
0B
67
09
14
78
6B
7D
15
1C
0C
6F
1B
0C
00
6F
17
7D
07
7A
0B
7B
76
0A
03
10
08
63
68
78
05
7C
0D
0E
74
62
76
12
6E
16
77
02
6A
0F
71
79
00
75
63
14
04
07
00
68
71
03
67
02
68
13
6D
6E
04
79
22
0F
7B
69
74
70
7E
75
7D
6B
6F
0D
72
02
14
68
6E
6A
6B
1A
0E
15
74
06
72
77
75
65
6F
6C
01
0A
08
1A
75
7D
06
15
66
0C
65
12
0C
03
14
7E
04
0A
7A
7B
0D
75
0A
6F
73
72
7D
15
11
72
06
11
10
68
6D
7F
13
7C
71
6A
65
0C
7A
6A
06
0E
6E
73
73
70
68
0C
63
1C
08
1A
71
07
6E
6F
0C
61
7A
77
75
12
06
0C
76
0A
70
00
67
6A
69
0F
7E
68
13
19
1A
0C
17
6F
75
64
15
73
76
07
06
78
19
78
16
08
79
73
76
75
7C
13
0A
6B
7C
7C
14
64
0D
06
6A
64
0D
7B
75
7B
7C
7F
76
14
0C
0C
6E
6C
02
0B
6E
0F
66
0A
16
1B
7A
0A
6F
79
64
05
0B
18
19
68
10
76
16
73
07
10
6D
7A
7F
14
7C
74
07
06
0F
7F
0D
10
76
69
6D
11
6D
07
04
05
6D
73
01
07
16
0A
16
17
0A
14
68
68
6F
19
7A
0C
70
1D
67
68
7C
74
04
0B
0E
0A
03
18
15
62
05
6F
64
76
63
19
05
02
7D
77
00
09
66
14
17
07
70
1C
77
01
07
69
04
05
6F
7D
0A
6B
7B
77
69
14
6C
11
79
0C
6C
12
15
69
7E
02
6D
19
18
05
06
71
7A
0B
17
0A
68
6F
07
66
79
1B
7E
7E
65
1E
67
16
6C
0D
1A
72
6B
0B
0D
0B
71
18
67
13
14
0F
6E
09
66
0E
6C
7A
77
0E
09
6A
78
79
05
09
1F
7E
05
16
12
6A
74
01
6B
08
7F
6E
18
12
0B
00
7D
0B
01
07
65
64
13
14
78
19
11
64
11
20
6B
62
12
7A
0A
18
75
0E
62
7D
72
74
03
73
62
68
72
0C
14
0E
01
7E
74
70
05
02
68
18
06
66
15
1F
10
0F
01
69
0B
61
78
0F
14
7D
0B
0E
16
7F
1B
14
17
65
18
79
70
1A
69
1A
0A
7C
7A
13
0A
06
17
71
67
13
13
6E
6C
79
68
1B
04
1A
7C
7D
12
14
10
79
06
09
6B
08
0D
78
78
18
21
1C
67
6F
76
7A
71
68
75
0A
01
0E
71
63
7E
06
6B
0F
73
65
0B
0A
01
6B
0E
6A
67
18
1A
10
69
6D
65
1C
78
12
13
6D
68
7F
67
72
6E
13
19
7D
11
0E
18
0C
66
02
09
71
78
69
72
6D
7E
72
67
17
07
15
75
64
0D
11
6D
0E
0E
04
19
13
6D
0D
0B
11
18
02
06
19
72
02
75
79
6E
02
7F
16
1B
19
61
16
1B
1D
67
66
6C
72
7B
0D
6B
6F
07
74
18
1C
7D
6C
7E
7A
66
18
0D
0C
6D
65
63
16
1C
7B
14
72
03
6D
01
17
67
11
1C
6D
15
15
08
68
7B
7F
72
05
69
19
69
05
07
12
07
00
15
1B
6A
72
00
79
69
7D
77
06
0A
07
18
16
69
67
76
17
0D
12
1B
7B
13
1B
7B
08
7C
6C
79
71
7D
7C
6E
09
78
1A
10
7E
12
1C
6D
0D
18
09
12
0A
63
17
66
13
6B
03
77
00
6E
1D
12
14
0E
7A
1C
02
64
0C
62
7E
75
11
1D
7F
6E
72
19
15
0A
1C
16
7E
11
66
06
0D
1A
7F
1A
16
0D
16
07
6B
1B
07
6B
75
15
7C
05
0D
07
7D
08
65
6B
12
15
16
0E
6A
22
1A
7F
0F
1A
62
13
07
7A
6D
00
16
10
12
64
7E
1B
70
04
70
19
75
7F
7E
22
16
02
7B
03
7C
09
02
0E
1C
7D
14
16
0F
66
7B
6D
0C
74
18
0B
01
07
64
77
15
6E
12
74
65
15
14
68
10
76
6A
0C
13
17
01
00
62
68
6E
65
65
69
77
03
00
0F
68
10
7D
06
13
7A
0F
7A
65
00
7A
0B
16
19
6B
0D
06
0A
6E
6E
0A
1C
6D
6F
18
19
11
0E
0B
72
6B
1C
6F
16
0A
6C
06
06
7B
05
03
73
11
72
17
6A
08
73
16
01
18
0D
04
10
79
12
07
71
66
08
1E
19
75
70
6D
00
72
04
07
6C
77
09
0E
73
7D
08
65
76
0F
6C
78
18
14
7C
01
67
1F
6A
05
77
76
6A
04
0D
7B
1B
12
6A
0B
77
74
02
10
05
1B
0E
68
69
73
04
74
64
05
18
7E
1F
01
25
08
19
1B
0D
78
17
0F
1C
64
0B
1B
0A
6F
61
02
74
67
16
6E
7E
6C
0E
67
79
08
03
6F
6A
22
1A
74
65
70
04
1C
01
04
67
03
19
62
76
07
66
62
19
00
7D
63
68
71
57
15
6C
74
63
0F
7F
09
14
72
78
06
7A
0C
6E
67
76
7B
1A
0C
1D
78
06
1C
63
10
7C
08
7E
15
64
06
6C
0A
17
11
23
02
71
02
67
7B
6B
74
71
78
13
00
6E
05
67
13
75
64
69
7B
14
0D
09
0F
6E
7C
6C
77
72
71
64
0E
6E
03
0F
6D
0A
75
1C
14
1F
6A
15
1B
16
7B
7D
6C
7F
66
15
12
19
67
59
08
02
00
06
17
6C
27
07
01
26
7B
09
09
12
21
06
09
76
0D
73
7E
11
79
14
24
16
6E
14
72
7A
07
7F
71
13
7A
04
76
0A
05
00
6C
6E
07
76
6A
66
0C
6C
18
7E
04
70
17
6E
07
18
08
04
19
05
1F
12
01
61
76
79
0C
08
07
74
75
06
18
72
04
65
1A
00
71
6B
61
5D
75
15
05
71
01
1A
1E
62
0E
7B
71
67
1A
14
7E
6F
02
0D
69
5D
18
01
18
04
13
0C
71
19
15
6F
00
70
7E
03
14
00
61
77
01
7E
19
7B
05
01
77
65
74
12
15
79
16
15
1C
7D
6A
7E
04
13
06
73
7F
1B
65
62
09
69
7F
67
78
11
19
7E
70
7D
6F
7B
6C
61
64
0A
08
69
18
6A
68
0A
07
00
66
01
6D
78
71
12
09
6F
7A
14
6D
05
6A
12
17
00
76
05
17
7C
63
14
7E
71
14
11
11
75
18
66
7F
28
73
76
15
68
71
08
77
65
20
7F
7C
10
7D
08
0D
6C
7C
0A
6C
02
6C
18
19
15
66
7F
6B
6B
79
10
72
02
71
65
08
0C
1C
15
04
72
01
0E
06
11
79
63
70
07
12
0B
15
7B
68
05
79
7D
76
15
68
7C
78
10
01
15
71
63
62
00
68
75
0A
0C
6C
0E
0C
10
74
10
14
65
09
6C
0B
09
7C
02
0D
63
6D
0D
02
18
64
1A
70
65
7E
71
7D
0A
12
0C
72
15
64
76
76
12
73
76
74
66
0B
1F
7F
16
14
76
06
0A
7C
07
13
01
06
72
68
72
6F
79
0D
73
6F
1A
0A
6E
12
67
1C
02
05
17
7C
64
15
77
71
6C
7F
0A
68
79
1A
04
1A
0A
1B
6A
72
79
00
1C
72
09
19
73
75
73
64
02
7C
74
78
0C
17
1B
18
10
13
01
19
09
7F
7B
7D
10
17
6A
06
6D
0B
01
02
14
0A
0F
76
16
0E
7F
16
74
71
1A
74
1B
19
7A
19
00
0A
10
1B
1B
71
74
06
0C
77
66
04
64
1B
0A
65
03
7A
7E
04
0B
0D
02
65
0C
6A
7F
62
7A
08
78
69
07
6F
72
17
0E
6D
16
73
6F
79
76
07
16
12
6E
0B
79
7F
0D
19
71
18
15
70
65
1D
0D
67
15
74
15
08
71
04
06
16
65
70
04
76
01
12
10
04
76
13
70
68
1A
16
69
7C
05
13
16
09
07
78
07
69
65
75
00
10
6A
18
13
6C
00
7A
7F
13
7C
78
64
6F
12
66
17
73
0A
78
17
05
1B
01
75
1D
7E
7A
76
05
08
6E
12
1C
6D
79
67
02
6A
6C
7E
7C
13
00
7F
00
72
63
12
7F
6C
6E
0A
71
72
13
1C
0B
6E
70
63
16
69
0F
01
13
6B
10
0B
66
10
77
1B
0B
06
17
03
76
76
16
79
0F
67
7A
07
0B
6B
7D
6B
09
69
7B
05
6F
1B
19
7D
04
0C
73
1A
70
66
01
0C
16
69
18
1D
7F
75
63
7E
77
6C
03
7B
69
6F
74
10
64
0D
05
07
09
7E
79
1C
7C
6A
79
05
7C
6A
16
17
0A
07
64
00
16
00
17
67
74
69
6E
07
7B
77
79
05
74
19
78
0D
04
68
70
1B
07
6E
6A
12
63
0F
08
69
0C
12
04
02
15
7D
70
66
7C
6F
75
18
19
7A
76
17
1B
05
68
70
68
70
66
0A
6E
0F
01
75
7D
01
70
0B
02
08
77
0A
03
68
79
01
0F
04
05
69
15
1A
68
6A
09
6C
76
75
0C
68
06
63
69
6F
77
07
0B
7F
19
7C
6E
77
02
12
6A
04
16
74
02
18
7A
6B
7A
7A
72
05
05
0E
66
79
07
04
0E
6D
6F
04
1D
71
76
7C
0A
7E
02
0B
04
00
01
03
7E
7B
79
6F
04
72
1D
06
07
19
73
62
6D
0C
1A
1B
02
17
6B
15
71
11
61
00
06
66
1A
0D
0A
14
6E
69
69
05
79
74
16
05
09
1A
78
70
00
76
01
7A
69
6C
16
06
10
04
03
68
00
73
6F
67
6B
78
6F
0B
0B
79
18
6E
65
14
75
12
76
63
01
7A
08
7C
13
1C
1B
7E
02
04
7A
6E
18
12
61
69
75
0F
08
02
74
02
76
0F
77
63
64
67
7C
18
74
0E
65
65
77
04
0D
63
04
10
72
6D
79
65
1B
6D
7B
79
17
66
0B
0A
6F
05
68
6D
02
01
1B
6C
02
6E
63
0A
02
67
6E
7A
0C
73
75
0B
72
7D
1A
79
02
70
1B
06
16
6F
12
68
7C
0A
72
7B
6E
6E
62
76
14
6F
7B
18
6E
0C
63
04
65
11
68
63
08
64
0C
0C
0C
7F
05
06
1B
00
14
7C
6A
00
15
1C
6D
7F
6A
04
16
6F
6F
6C
0D
73
10
6E
10
64
77
1A
0D
6A
0D
08
16
7D
09
0D
0E
17
77
73
7F
76
7B
7C
09
05
0A
14
7D
71
7C
09
06
72
75
72
6D
62
01
0A
0A
71
18
7F
77
0D
19
0E
06
6A
1A
6F
70
17
78
76
7A
11
14
1B
79
0E
16
1B
7C
03
66
67
07
19
1A
15
75
6B
63
66
07
68
08
14
77
0B
03
18
0C
1B
12
6B
07
1C
6C
15
0C
6C
76
76
0E
0F
0F
67
1C
13
11
65
18
6C
1B
1A
16
6F
64
18
73
03
6B
62
1C
0D
14
68
70
08
06
18
75
75
68
17
62
05
0F
18
06
1A
74
0D
10
1B
7A
15
72
03
0A
01
74
7A
00
15
66
78
1C
03
64
68
6E
73
75
7E
67
7C
66
03
08
00
74
6C
5A
00
04
6F
7E
0C
11
18
77
0F
6A
16
70
10
72
65
21
1C
1C
76
08
6C
7A
62
08
7A
01
60
1C
74
08
77
0B
7C
01
7B
65
18
0A
1A
1A
0B
5F
0A
1A
7B
0C
5D
66
63
75
7C
6C
0D
7B
06
03
09
1A
04
7A
77
15
0B
6A
73
64
71
6E
06
14
02
79
6D
78
60
0F
76
12
6A
73
67
04
77
00
6D
65
15
18
03
6B
78
2C
6A
7D
06
75
7E
19
6D
6D
09
0B
16
64
0B
69
00
6A
01
63
66
01
77
65
17
1A
78
68
17
76
1D
11
00
7D
17
70
68
68
70
7B
0C
0B
11
18
02
64
0B
09
70
67
6A
72
06
17
75
1C
29
73
6B
6D
08
18
74
7D
04
0E
00
2A
0E
63
73
1B
0C
01
10
11
75
62
04
03
06
0B
73
66
7C
66
01
17
05
63
6A
01
0C
09
09
78
20
79
72
7D
0C
5D
11
68
63
69
17
6C
7D
65
73
1C
61
06
7F
7B
04
7F
65
01
7D
6B
6C
77
15
15
05
75
5D
73
7C
7D
03
5E
78
26
16
01
13
0B
1C
1A
07
7B
15
6F
67
7F
63
70
08
69
67
18
03
01
6E
0B
07
16
1C
0A
7A
0E
07
0C
06
00
74
76
21
6C
66
7E
5D
1C
09
11
63
75
66
10
6A
69
1E
74
1B
6F
09
08
0C
05
68
0F
69
72
63
5D
71
18
6F
0E
1B
18
0F
7C
0F
65
03
0F
07
70
70
65
0C
01
02
6E
7D
71
09
6C
7F
66
17
05
6D
7F
6F
0B
13
04
68
73
73
12
7A
0C
0D
15
7D
6A
66
69
63
76
63
64
00
79
7F
0B
08
7B
65
72
7C
6F
6F
1D
72
04
79
1B
12
0A
6C
02
6D
6E
67
62
11
68
10
6E
71
7A
7F
7E
16
68
7C
73
6B
11
77
19
20
02
0C
78
0E
0E
78
75
0A
05
09
79
63
02
14
69
78
62
11
7B
01
03
1C
04
0C
13
0D
6E
61
18
73
0F
74
11
70
6D
05
6C
05
14
7F
16
0F
78
07
62
03
78
01
6F
1C
0F
13
04
00
0D
12
67
04
02
61
6A
1C
02
11
0B
68
0F
1B
73
66
73
6A
0D
1B
68
16
0C
1C
75
19
7C
1A
68
0F
6A
68
7F
0E
6B
00
04
0D
6F
6F
18
67
6A
65
71
7F
72
74
7E
0B
72
6D
22
7C
6B
07
76
7F
7B
1B
6B
09
18
0E
78
07
6D
04
11
0F
12
17
19
75
74
00
75
15
6C
02
76
00
66
67
14
19
7B
77
0F
68
7E
61
07
7B
6F
71
0A
7E
63
05
15
10
0B
01
01
0F
1C
13
12
1A
6A
69
05
01
1C
03
69
77
65
05
6F
74
6D
0C
73
67
1B
6A
19
15
0C
73
05
12
1C
66
6C
69
7B
0B
73
05
7B
6B
6D
7F
77
71
7A
68
17
04
7C
1C
7E
03
01
67
0E
7D
1B
01
1A
0C
79
65
7B
01
6D
77
19
0C
12
75
16
07
14
06
72
75
12
1A
0A
02
1A
60
7B
70
12
0C
1B
0B
6D
69
05
02
64
05
11
17
1B
0A
6C
05
08
6A
00
1B
1D
6B
11
6B
1B
77
65
6E
67
08
16
72
1C
7E
6C
69
77
1E
6C
1C
03
62
77
68
18
0B
06
77
04
10
7D
0B
65
11
07
18
0B
73
7A
79
6E
79
0D
1B
11
04
7E
10
01
6A
1A
05
12
7D
02
1B
0D
11
0F
6F
10
17
7D
0A
6B
1A
03
72
1E
1A
15
7A
70
72
19
7D
18
18
13
69
7D
11
6E
0A
67
10
72
79
73
1D
0D
1A
75
7B
65
6C
0A
6A
10
18
1C
6A
75
06
6C
08
11
71
0C
00
0B
18
6A
18
0E
74
14
6B
01
1B
7E
1D
64
6E
14
64
06
6A
77
67
6D
0A
20
02
08
0F
77
7B
0B
13
6D
73
06
6D
0F
11
06
62
7B
69
08
7D
75
1C
11
0F
75
74
15
76
65
16
13
66
18
1A
6A
13
6A
14
13
04
68
69
7D
67
7E
19
70
03
09
01
05
17
0D
1B
74
0C
11
63
05
08
03
75
07
66
6E
13
19
00
08
0F
19
10
72
76
1D
7A
66
04
6F
1A
6E
62
04
63
73
76
76
7F
09
12
72
10
04
61
75
7E
1F
6D
73
16
08
0B
7A
0A
0D
6C
02
09
78
12
7A
78
19
65
03
04
02
11
0B
0A
1C
7A
6C
76
6D
6D
14
12
11
09
0C
1A
7C
7B
78
7D
08
7F
15
16
75
65
6D
0D
11
68
00
07
74
76
01
7D
13
6D
65
01
6F
06
74
15
69
15
0C
14
19
6A
06
0E
0B
7F
18
77
00
11
65
63
6E
6F
1C
77
0B
6E
76
7F
63
68
12
68
05
6B
75
78
6C
07
74
1F
79
6E
04
66
66
68
68
1B
18
00
02
71
7E
04
05
66
7E
03
1B
19
78
16
13
65
75
7C
1B
19
78
75
02
76
1B
12
00
64
1C
21
0A
0C
74
02
0F
73
12
13
72
72
64
6B
11
79
76
11
02
73
01
11
05
04
18
79
7F
1F
7E
01
12
17
17
05
05
71
77
62
7F
7E
15
01
0B
15
7E
17
0C
75
0E
6F
0E
0A
17
76
06
6A
15
16
7B
04
67
16
0A
05
74
76
06
0E
0B
7D
70
09
14
1B
0A
03
7D
6C
70
72
02
00
78
0F
7B
07
75
12
01
07
16
75
64
09
79
68
6D
01
11
64
1C
64
68
7F
0C
69
71
15
77
02
05
7B
6F
6E
6F
6B
14
08
6D
6E
7C
6E
7E
6C
77
79
0F
71
7D
0E
09
7C
66
1C
02
09
66
69
10
15
06
79
74
6B
10
77
7E
18
0B
72
6C
79
00
02
70
20
6A
17
00
0D
73
15
7A
00
6E
07
69
67
18
7A
7D
71
12
1F
0B
68
17
7F
1E
1A
7E
65
12
1D
08
0D
7F
66
11
74
6F
1C
13
75
15
0A
15
0D
08
7F
62
14
04
7C
76
7C
13
66
03
79
07
15
1B
76
12
1D
0D
11
79
01
12
04
62
6F
76
7B
16
0A
6F
71
7E
17
06
68
76
67
16
08
65
77
05
1B
14
7A
05
07
18
0A
0E
7C
6C
0F
7F
02
00
08
64
77
0A
64
09
69
76
12
75
76
73
73
73
06
79
71
6A
73
71
7E
10
0B
13
7E
6D
1A
7E
64
0E
1A
78
72
0B
7F
16
67
01
10
75
0B
19
16
6D
79
68
73
22
02
00
6E
08
06
0F
65
63
64
7F
0E
73
0F
6B
66
10
02
66
0E
78
03
6F
10
16
0F
03
63
6C
1E
66
17
15
6A
0E
72
7A
7C
17
7D
06
0B
00
63
08
04
12
6A
75
15
07
02
1C
7B
66
16
70
15
72
62
1F
19
63
69
11
77
2B
79
06
0E
12
7A
6F
7D
1A
11
63
66
7E
04
7C
12
00
0B
73
02
70
69
0A
15
67
63
64
02
7A
1B
7C
0D
74
64
66
69
68
7B
6D
25
14
63
11
5C
19
06
63
78
19
6B
14
6A
1C
26
71
6F
1A
7F
23
09
00
60
0B
1A
1A
02
5A
17
1E
70
04
14
20
67
79
6F
7D
10
72
04
7F
76
69
18
16
01
77
6D
08
73
01
7C
6D
7F
12
08
0B
77
79
13
17
6F
07
07
76
02
71
71
06
02
14
6A
11
62
6D
05
74
03
73
63
6D
12
72
65
09
78
25
69
1F
7F
61
69
01
72
5F
72
7D
05
06
68
0D
1A
07
72
1B
0D
18
0E
70
01
07
6F
6A
1A
70
75
6C
0B
03
68
11
67
58
04
0C
6B
65
10
21
74
74
0C
64
0F
6C
7A
16
67
23
74
13
13
18
72
67
1A
72
72
73
58
1E
06
10
70
06
19
6F
19
0D
65
1E
7C
74
74
15
7E
71
1B
7F
64
19
7F
6F
67
75
10
72
0F
6C
6C
77
00
0F
72
10
03
5B
74
71
18
7F
0C
69
74
0C
04
6C
02
6C
73
7B
67
75
73
7C
7F
6F
02
70
73
1D
0C
5E
10
0E
10
1B
7A
60
74
24
73
05
12
78
75
0E
00
06
16
0F
6C
64
6E
04
6D
16
7D
17
17
06
71
1A
1B
6A
7F
10
14
01
14
79
1B
1C
6E
04
19
6A
07
11
6A
71
70
67
7A
0C
0A
07
7D
65
16
6B
6B
1B
15
75
07
19
7E
11
0A
1B
70
62
6B
73
73
0E
08
0D
6A
0C
13
75
71
19
63
76
18
68
05
02
17
63
71
71
0C
01
19
0C
04
0C
69
6D
71
7E
16
0A
78
6C
12
75
7B
7C
7A
73
6A
69
04
73
77
7A
72
64
7D
7A
6F
7C
11
08
68
07
15
6F
7E
08
1D
72
01
03
6F
02
13
11
6E
6B
76
03
77
09
13
67
6F
65
17
05
71
07
06
03
6F
18
73
6D
0A
7F
05
19
6B
67
06
0B
73
01
04
6E
0F
09
13
0B
67
75
1B
74
02
0A
76
07
13
67
6E
0C
00
7A
7A
67
19
08
18
67
15
11
6E
66
6E
6E
0A
7E
7C
71
7D
6A
6C
19
7E
7C
1C
67
7E
07
04
6B
13
03
69
78
74
77
14
0F
63
1D
6D
0B
66
03
66
13
66
14
68
0C
0A
7D
69
75
6F
64
62
7D
09
65
10
74
76
77
0A
7B
7B
08
13
17
6B
0F
13
12
75
1B
18
1B
73
6A
71
68
72
0C
62
00
6F
63
01
01
6E
12
6E
62
65
78
0A
0D
65
07
78
0E
0B
65
14
12
10
7C
6D
74
17
77
6C
60
70
08
01
7D
65
70
61
63
6C
16
10
09
79
68
17
0E
63
0D
7B
7E
72
77
6D
14
0B
78
16
13
69
7A
79
74
6C
02
0A
70
11
73
1E
70
73
1C
7F
05
1B
0A
77
03
70
7F
7B
17
7E
0F
1C
1A
7B
20
05
07
1D
04
74
13
00
1B
74
10
03
65
6C
18
10
7B
16
0A
79
05
6D
70
71
03
18
18
60
76
01
0E
12
62
73
68
75
22
1A
0D
01
66
0D
6C
65
6E
22
79
00
7D
78
06
6E
13
0F
00
05
70
67
71
63
77
77
01
02
04
78
77
11
19
66
63
6F
13
1F
14
17
00
77
77
71
09
08
1B
7D
7C
12
7B
76
05
0D
14
04
76
0E
0B
1C
67
75
7E
02
20
05
6D
11
0E
76
7A
7B
0D
23
6B
6E
6E
6E
12
71
1B
1A
03
7A
70
74
7A
04
01
73
14
7E
7E
05
0C
63
1D
7D
02
7D
03
08
0D
08
18
63
15
15
7D
18
05
63
16
17
10
77
0C
23
77
0E
1A
7E
13
72
16
12
00
0B
6A
0A
71
67
12
13
7A
7F
67
0E
02
19
69
6B
65
06
68
65
13
0E
16
00
75
67
6B
73
0D
65
6F
65
66
7D
1C
75
18
76
63
1A
12
76
6F
6C
72
7E
79
0C
74
06
67
16
6F
0C
1A
70
01
09
0C
0E
0A
03
07
6B
76
68
7F
63
18
0A
71
7C
00
13
6B
17
1D
16
0F
71
07
7E
04
13
6C
79
6E
18
05
78
77
68
6F
04
1B
08
0E
13
1E
78
01
04
7F
1B
7A
7E
7E
10
04
65
18
70
11
12
04
74
72
7F
16
69
79
18
69
0E
0F
04
7D
0C
7F
64
0B
69
1A
0F
6F
6A
1A
74
77
7A
0B
16
07
04
00
63
03
6D
06
15
76
73
7F
71
77
08
09
03
75
01
14
6B
78
0A
77
02
69
1F
15
0A
67
05
06
02
7E
72
0A
63
66
6C
04
71
20
14
09
13
18
10
77
63
16
06
6F
79
7C
67
64
10
03
03
69
18
7A
0B
07
0F
0E
1A
16
6D
69
6B
7A
75
6F
65
75
00
72
0A
13
07
10
0B
7A
6A
73
78
7A
0A
71
6B
18
6F
06
00
70
02
6C
5F
1A
0C
17
09
6B
1C
21
16
13
11
7C
0E
7E
04
5D
17
7E
04
04
07
11
62
69
0C
04
02
13
03
0F
66
6A
1D
03
65
7A
7A
63
77
70
0D
6B
7F
75
13
75
14
17
01
78
05
03
63
7C
6B
7C
08
66
70
0D
05
61
0A
1C
7B
6E
15
10
17
62
00
71
18
75
05
6C
1C
72
78
74
16
09
6A
7D
10
12
6D
1E
14
67
14
7A
0C
12
00
0E
17
79
6E
1C
09
18
69
69
63
16
63
67
6A
07
76
6A
1B
79
09
1E
0B
76
75
0F
0D
71
70
0F
77
72
73
09
78
05
03
13
1A
61
6C
10
20
60
18
76
0A
71
6D
08
0D
76
0E
00
7E
64
79
04
00
01
6E
74
0A
19
70
02
06
1C
75
0B
13
69
75
19
78
7B
0F
0F
73
0F
69
6F
6B
75
07
1A
1C
16
0E
03
67
19
16
6E
63
09
64
6C
15
17
05
10
67
7F
07
16
6D
75
6C
20
12
12
08
04
68
0D
0B
1D
1C
06
1B
5F
7F
6F
66
76
7C
6F
74
17
08
18
18
04
19
63
0B
10
24
1A
7D
0F
06
11
17
68
70
16
76
02
6D
7C
0D
69
73
74
17
01
05
00
1A
6D
0C
09
13
65
0F
11
16
71
7F
1B
01
0F
73
63
75
16
07
13
1C
22
17
78
6B
73
11
1B
09
6A
0B
7A
19
6C
19
19
6F
10
67
73
18
7C
00
11
6D
6D
0F
5A
1C
63
13
18
71
03
04
79
07
09
73
66
66
6A
08
7A
69
0F
77
7C
04
7D
71
0F
18
7A
0B
07
10
17
63
73
65
26
66
60
01
6C
75
79
7B
11
69
1B
72
0A
63
74
06
17
79
7F
18
6E
78
74
72
7A
26
1B
78
1B
0F
10
79
0F
05
0D
1A
7A
0D
76
75
01
0F
12
78
7C
65
77
70
64
72
0A
1C
7D
05
10
7A
00
18
0F
6B
7D
08
6E
6E
7E
6F
7E
09
12
0F
77
0D
17
7D
0A
15
15
0F
17
64
09
0D
68
0D
69
76
7B
0C
16
04
72
6E
7D
63
5E
05
0B
03
13
7F
76
71
7E
0D
75
6E
0E
06
6D
77
76
69
74
0D
0B
65
12
7A
00
0F
5D
11
04
64
24
7F
0C
6F
23
13
01
19
79
77
00
74
16
75
18
0E
1A
7B
07
76
0F
06
19
1A
06
6B
64
0A
77
23
78
7F
66
1C
08
65
63
17
6D
19
7A
01
65
09
76
7F
19
6D
6E
63
79
09
7F
25
7D
64
16
7E
23
69
61
70
25
0E
0C
68
02
18
09
6E
16
7D
0F
64
7F
7F
78
7E
6F
0F
00
05
10
64
11
67
7F
17
70
72
05
12
6B
05
16
6A
11
7E
70
0E
15
7F
16
08
6E
02
74
13
0D
66
01
66
6B
11
0D
1B
06
02
73
72
03
00
74
6A
73
05
69
6A
7E
01
0A
72
7D
68
02
71
21
03
10
08
01
6A
66
6A
75
09
65
16
75
71
06
04
06
76
6B
1E
6F
68
79
0D
15
6D
1C
79
7D
79
6A
08
0A
78
75
7A
04
16
05
6B
69
12
62
18
71
00
17
1B
77
7D
6E
68
7A
70
17
7E
63
06
08
73
0E
78
01
75
01
06
7E
76
19
6F
15
17
08
7A
13
73
0A
04
7C
19
11
0D
12
09
0B
06
04
6E
16
16
04
07
6E
03
13
15
0A
1A
06
1D
74
0C
62
04
11
7D
69
63
75
09
6E
74
1A
10
12
71
0B
23
00
78
77
6F
6F
0D
69
76
7B
70
08
65
02
63
0E
78
01
01
76
1F
0E
6D
67
1A
0F
7A
02
62
05
02
08
60
04
6A
6C
66
0C
78
0F
6B
13
66
75
6B
05
0C
63
1C
6F
1B
66
15
64
1B
6C
0B
03
6B
1C
09
6D
0A
09
09
66
62
74
07
10
6B
65
78
75
0A
16
04
0B
05
00
02
11
05
75
0E
68
6C
02
07
0C
6A
76
67
74
79
63
01
05
67
6D
01
6E
05
73
65
72
72
16
06
77
0B
11
1A
6B
61
68
0A
07
75
79
14
08
71
07
13
6B
7C
1F
1F
64
71
68
7D
15
64
73
01
07
0B
0C
75
72
61
6E
13
6A
18
13
1F
05
0D
04
0D
1B
0E
76
6F
7C
6F
13
16
68
74
08
03
21
77
19
08
6B
12
1A
12
04
06
13
12
15
62
0C
01
11
03
71
07
14
0E
1B
7D
62
06
03
22
75
74
63
0E
1E
76
0B
17
11
0C
11
7E
7C
0F
66
76
13
6C
0F
75
01
14
73
65
77
6A
64
6F
1A
7A
00
77
7D
63
78
0B
1D
74
79
65
70
0D
66
70
63
00
6E
7D
64
18
02
63
62
1A
1B
6A
11
79
73
69
09
02
75
6F
65
17
07
11
22
76
04
62
05
77
7E
75
05
19
08
05
6C
0F
16
09
65
04
04
16
6B
74
12
11
06
14
7A
0E
04
19
16
69
0E
7D
14
7F
0C
7A
69
7E
01
1D
74
05
74
77
13
05
10
78
7D
5E
0A
66
04
68
00
03
0F
07
67
75
70
20
6F
1A
68
7A
72
7B
77
6C
0D
03
7A
78
14
64
6A
0B
74
62
68
06
10
74
6F
70
10
70
7F
61
7D
0F
0B
77
13
6C
14
0A
65
7D
76
13
70
14
6C
76
7A
0A
12
78
08
10
72
0C
7F
02
07
62
0A
7E
16
72
02
6C
79
13
6E
00
7D
0E
17
7C
76
77
6F
02
67
6A
10
04
7D
6E
11
7E
66
05
14
7B
0F
7F
69
68
6A
08
7A
78
17
0C
21
75
1A
14
05
08
0D
66
11
06
17
78
03
71
67
72
6E
63
0A
73
75
0A
7C
7C
77
6D
08
03
72
70
73
69
04
0A
6C
1B
7B
6D
0B
6F
70
0A
72
10
7D
74
6A
74
01
6B
0D
6B
1B
7F
6D
01
09
05
63
0D
1A
10
0A
7A
16
03
6C
08
15
7F
18
10
66
01
1B
01
0F
7C
01
0E
0C
75
77
6D
0E
69
68
6F
78
13
14
0B
12
06
08
05
6D
02
16
7E
04
0C
08
14
12
16
0F
6C
6E
0C
07
24
05
6C
6A
10
0F
73
6D
10
71
12
65
64
7F
05
11
16
06
1A
7E
09
6B
06
02
15
0B
7D
0B
77
65
0E
72
16
05
12
17
5A
0B
72
09
17
0F
01
15
10
7C
0F
7D
04
1C
63
78
13
0E
16
1E
66
69
61
17
79
6F
03
7B
09
0A
06
1A
0B
0D
66
7B
7F
67
70
71
03
0E
13
6D
1C
03
0E
00
10
7F
78
18
09
0F
70
15
22
05
66
7C
79
69
7B
08
05
00
00
00
6D
0D
6C
6A
20
62
7F
73
02
24
7E
11
08
10
0C
0D
10
03
7D
74
18
0A
1B
1A
05
11
07
7B
65
6F
17
18
63
02
13
7E
6F
0A
0E
77
77
26
07
16
12
0D
65
66
63
09
07
15
7A
73
78
17
7A
05
7A
66
09
66
0C
7B
67
0F
11
09
14
60
7F
04
71
7E
1C
10
00
06
65
0B
0C
1A
6A
09
15
12
12
16
7C
7E
65
02
14
11
0D
18
6A
64
1C
71
1B
03
0B
67
75
0A
7B
1B
72
01
6A
6A
68
0A
69
69
0F
06
7A
11
7B
0F
1A
1C
17
1A
75
0A
01
66
11
06
09
70
12
7D
13
6C
14
1A
69
6E
06
7D
79
6A
0B
0B
0D
6B
69
6E
03
09
01
78
7E
16
7C
63
64
6F
02
18
7C
08
05
0F
0F
18
7E
1A
1A
73
1F
78
11
73
0F
09
7E
19
13
12
09
7E
08
7B
70
1B
03
71
10
6F
6D
74
72
6B
10
73
7E
0F
17
1D
10
73
1C
1D
6B
11
76
17
00
7A
03
6A
0F
08
18
0E
74
6D
75
68
7E
75
0D
0B
1A
7F
1B
07
04
03
0F
01
0A
13
10
1A
7F
6C
00
0E
6E
77
76
1A
6B
79
0D
72
6A
73
0C
04
65
00
7E
06
6C
18
7C
0D
6B
75
6F
02
05
07
7A
1A
6A
03
19
75
7A
6C
0A
72
0A
78
64
78
73
19
67
68
11
69
74
02
03
0F
18
13
66
7D
01
16
6F
1A
17
7D
0A
72
6C
6A
75
08
7A
67
70
11
71
05
19
0C
01
04
08
16
03
19
00
76
05
05
7B
0D
16
08
73
01
76
05
74
02
78
63
73
6D
03
11
7F
16
7F
7D
6F
13
13
00
73
6B
7E
74
05
76
65
76
1C
68
04
07
13
70
69
74
64
78
75
19
0B
09
6A
06
16
21
7C
6E
11
0C
07
74
09
14
6E
0B
07
7C
10
0E
65
6C
7D
6A
7A
00
01
78
79
7F
67
7A
7E
1C
71
11
7E
67
7D
63
05
6C
78
0D
6A
69
04
78
7F
1C
0A
0E
0E
6E
7F
77
69
03
1F
77
73
0F
64
70
7A
78
16
68
7E
6C
0C
18
75
7D
6C
6F
74
78
0C
01
7D
7E
19
76
73
6A
6B
67
11
03
7F
77
07
04
74
6D
14
0F
78
64
71
0B
06
00
7A
6B
15
12
6F
69
10
12
66
6B
11
07
1C
17
7B
7E
15
77
76
1B
6E
07
20
07
16
02
02
68
7B
12
78
75
73
11
12
68
67
6D
09
0D
1E
63
13
0F
77
79
6C
77
07
1B
70
20
6E
08
76
65
04
78
10
1B
75
0F
60
75
1A
03
05
6D
66
7E
1A
6B
6B
67
12
6C
12
6C
6B
17
7E
0B
04
13
66
6E
1E
6B
76
75
68
16
7A
70
70
7C
7B
15
02
1C
05
7A
79
6A
24
79
7C
7A
11
05
79
07
6F
14
7A
07
6E
70
16
68
12
63
0C
02
75
63
13
15
00
78
12
68
0B
7E
67
00
07
6C
0D
01
64
76
78
10
03
01
79
0B
1A
0E
09
79
7C
67
7D
12
06
74
03
11
66
72
68
07
6F
67
16
1D
71
0A
13
12
79
0A
6A
71
07
1A
18
6E
07
0A
78
11
69
78
0A
7E
19
74
00
0A
68
73
7D
0D
14
07
1B
6A
6C
0B
17
08
6C
12
13
08
07
74
7C
7E
71
15
7F
77
02
79
70
7A
00
5E
17
15
0B
72
19
7B
00
61
6F
0C
04
67
78
71
13
24
02
66
7F
6F
64
1A
75
0C
13
72
68
1A
6C
01
0C
12
05
00
07
7E
03
73
71
04
14
0E
60
12
7A
66
0A
12
03
18
19
18
79
1F
6E
65
72
77
7C
68
6D
0A
7F
7F
18
04
06
6D
11
6C
61
6C
66
6C
13
73
16
10
75
7E
6B
70
69
02
67
7E
05
04
01
1F
02
04
00
73
1F
00
10
10
08
66
64
12
66
0E
10
64
68
6F
6C
7B
64
20
00
14
0E
73
0C
6C
0E
0B
73
0C
19
02
7B
04
65
5E
71
77
00
02
06
69
13
0D
0C
22
7E
16
7C
0E
73
77
08
6D
11
79
7E
79
7D
1A
1A
7F
1A
10
18
75
0C
7C
67
11
6B
15
77
62
68
17
70
67
62
64
0E
16
79
01
74
6F
00
07
70
0F
72
08
7D
00
05
78
11
11
0B
7D
12
75
5B
1B
16
14
70
65
68
72
02
60
09
75
08
18
13
74
66
08
7A
7C
0D
68
69
7B
67
08
7D
18
05
02
75
63
03
0D
77
6D
61
63
79
7E
01
13
02
6B
68
24
67
0E
04
18
73
14
0D
14
6C
6D
18
0C
72
01
6D
02
79
00
05
71
03
06
05
77
09
03
7B
0E
72
7E
05
19
69
65
69
73
00
74
7E
04
64
17
1A
7C
75
64
00
1C
7E
6C
12
15
6B
65
0A
7B
6D
64
70
09
65
79
13
74
10
70
1B
78
78
08
11
7F
06
17
7F
17
0F
7E
08
08
02
07
7C
72
07
70
75
5C
0D
70
7F
0B
77
5E
7A
6B
7F
7D
14
0B
74
12
1C
75
07
7A
68
72
63
6F
02
05
7D
7A
11
73
66
66
6F
10
78
6D
76
03
6B
7A
09
22
13
78
1C
13
73
7D
7C
7E
7F
78
0D
0A
7A
64
76
6A
70
79
14
77
69
08
04
60
76
17
10
62
76
08
10
77
7F
05
7E
66
05
79
03
74
72
1C
19
1C
7C
00
77
74
62
6D
73
6F
68
1C
05
75
0F
16
16
65
0F
10
7B
05
69
77
14
7F
7B
01
7B
09
7C
72
22
06
05
7D
0A
09
74
71
03
06
0F
17
76
67
00
1F
15
68
12
75
78
05
6A
6E
7C
1B
0A
23
70
13
13
16
03
7E
00
77
16
03
14
0B
15
17
68
18
19
6D
07
7D
07
14
1A
1A
6E
1E
08
02
0D
02
06
13
73
0E
6B
6A
73
07
75
63
11
00
00
67
7C
05
76
6C
74
15
1B
22
0E
7E
6B
66
7E
1D
78
6E
1A
66
7D
7C
6E
78
10
77
00
0D
13
76
0C
15
16
72
7A
6C
06
65
02
7F
0E
64
70
11
1A
63
0B
7D
6E
75
11
0F
72
1C
6F
68
1C
6F
0C
16
61
77
64
0D
66
6F
0E
70
69
17
70
64
01
19
26
0B
69
6F
73
08
1B
0B
70
04
6A
1F
1C
0E
6E
12
65
05
07
07
02
7E
67
77
10
74
66
02
04
0B
11
01
02
70
68
67
02
14
17
7D
15
01
70
70
05
67
23
6D
79
0F
09
78
7E
03
0F
6B
5F
73
00
1C
10
79
75
6B
00
73
76
71
7D
0B
09
02
06
02
67
78
06
7A
6B
61
7E
72
7F
13
0D
62
02
02
01
7C
0B
18
17
11
0B
75
14
04
70
11
66
11
0A
15
65
12
6E
6F
7E
72
7F
68
13
01
73
62
7F
77
0F
67
61
70
15
77
73
6F
0B
02
7D
0A
11
1F
1A
14
19
7D
01
79
76
0D
7D
71
0B
6E
77
68
13
17
1A
7E
17
68
19
7B
6A
6F
03
06
77
0F
69
0B
09
74
63
14
00
18
00
12
6F
03
66
09
18
6F
0C
62
6D
0C
7F
07
05
6D
64
78
1B
7E
01
11
76
71
19
00
17
7F
6C
13
78
01
0E
7F
6B
69
63
66
74
1B
0E
01
19
03
7F
6B
02
75
72
03
02
7C
6C
76
1B
64
79
05
76
6F
0A
69
0B
66
1D
0A
13
72
73
67
0D
73
11
18
02
16
01
02
0A
6D
75
19
68
6C
14
00
76
78
7D
76
70
1D
0C
6D
7E
15
00
04
05
7B
02
19
00
18
65
7C
0F
14
05
7B
12
7F
18
7E
77
07
6F
15
08
71
73
7B
76
03
12
7B
70
1F
11
00
0A
68
79
77
7A
70
00
07
7F
07
6B
0B
00
6E
79
73
0B
07
75
03
12
15
6D
66
12
79
71
14
72
6F
0E
1B
02
08
1C
08
0F
7E
6A
09
14
17
0C
00
18
07
7C
06
71
7D
71
04
7F
6A
71
7E
70
6C
71
15
08
14
66
18
12
7C
73
69
1A
71
6D
04
04
0C
0A
1F
18
00
1A
12
7C
09
19
74
17
0D
01
12
12
72
05
13
0C
73
7F
6E
79
08
18
07
62
66
06
7E
06
7C
63
17
09
06
67
1C
7D
19
6C
63
16
0C
6E
7C
66
0B
70
77
68
71
08
65
69
0B
6D
66
0E
67
15
7D
68
0E
15
1E
1C
0F
6A
10
7E
05
15
16
19
11
10
6B
7E
7D
18
14
0C
79
7A
0A
0F
7C
79
0B
65
71
6A
11
07
0C
1A
72
09
1C
07
02
76
04
65
19
09
7F
62
10
74
7A
13
02
6E
1F
13
7E
64
0B
67
66
79
01
0C
6D
00
18
65
14
17
6E
09
0D
7A
66
67
6C
63
76
6F
68
10
14
75
70
17
0B
01
08
65
70
68
06
61
08
02
70
6A
07
08
00
6D
08
05
65
1A
70
62
10
0B
18
5A
65
15
18
69
70
6D
6A
17
07
64
0E
7F
13
23
15
71
6E
70
66
7E
76
6F
03
69
12
7A
6D
78
0C
05
24
00
62
0B
77
70
13
05
11
71
6C
67
19
7E
03
06
69
04
66
74
79
18
18
60
73
6C
12
15
6A
79
05
6A
19
73
6F
6A
15
73
24
12
0E
07
1A
79
68
15
09
18
03
6D
74
00
0E
6C
11
17
0E
5F
7A
7E
73
13
00
6D
72
1E
72
60
02
21
1D
7E
0D
65
67
77
6B
17
11
61
71
69
15
68
1A
1E
70
68
76
13
13
63
75
63
7C
6D
7F
08
0D
72
68
0E
09
76
10
7B
04
7B
14
02
0B
75
03
07
79
69
19
61
70
67
70
5B
63
0E
10
14
64
0F
0C
23
7A
7F
12
1E
70
08
65
7D
69
18
1C
02
78
7C
70
1C
17
06
7E
77
75
09
18
19
64
7D
0C
71
6E
66
69
63
7E
15
11
6B
14
06
15
12
18
6D
03
68
67
0F
68
23
7D
6A
16
73
60
0E
7A
5E
00
08
7C
04
62
72
0C
03
6D
19
15
14
19
63
71
71
68
69
21
6F
0F
63
74
6C
00
09
08
26
66
18
05
6F
06
1A
00
04
66
1D
1A
08
00
64
14
69
79
72
13
04
66
73
76
07
6E
1B
09
6F
6E
75
0E
15
5E
71
64
7C
74
00
7E
19
0D
68
74
0F
7B
15
5E
06
75
6C
03
6D
66
76
0D
6D
04
6A
16
7C
19
72
17
77
7B
60
70
76
6E
00
17
07
6D
76
6D
7C
69
12
6C
7B
1E
75
1C
6C
0B
71
6D
64
7C
7A
00
15
6B
76
7F
0B
10
0A
02
0D
0C
05
64
65
12
69
04
1F
00
6F
66
0E
6C
10
69
15
13
79
11
09
1A
05
77
64
12
74
71
0C
75
07
77
1C
65
19
71
18
7D
04
10
01
69
69
6B
18
05
68
16
70
62
71
02
6B
78
1F
16
00
7E
64
69
07
13
01
78
00
01
7B
68
15
00
07
78
18
0A
79
06
05
1A
71
6A
06
6E
66
69
07
04
6E
00
7E
0E
71
04
08
13
61
01
68
7C
12
79
79
75
67
66
67
19
68
0A
12
7B
0B
6E
71
64
6E
10
14
05
1F
69
23
6E
12
76
62
03
13
17
7B
72
6B
6D
0E
0D
79
08
21
75
12
7F
73
09
01
74
0F
09
06
7B
79
07
67
15
12
6F
74
7E
7A
02
7E
78
66
78
1B
00
65
08
02
74
62
70
63
68
7A
0C
7F
6A
14
6C
67
7A
68
68
03
6C
1C
08
10
14
0A
6F
10
78
63
76
05
68
0B
68
73
19
03
70
64
07
18
6E
00
69
07
11
6B
75
14
79
7A
11
05
12
64
0B
76
6F
07
0F
08
0A
17
05
6D
0C
01
17
05
77
6B
63
11
74
11
12
7B
0B
79
09
1A
06
07
6E
7B
1A
19
7F
14
16
0F
6F
78
66
6C
68
08
17
7D
20
7A
18
61
1A
20
02
19
06
00
13
18
12
12
15
79
12
11
1A
7F
18
00
71
1A
13
64
76
1B
0C
79
63
04
75
67
06
0E
03
6D
1B
01
1B
74
0A
09
7F
0D
05
11
6C
08
0D
09
70
0D
04
78
7A
61
7A
76
7A
09
01
77
79
7C
69
04
08
7F
0B
16
0D
77
18
66
1E
7A
0F
6F
0C
7B
7E
05
7F
02
6B
76
06
76
15
17
7D
03
0D
19
1C
7F
70
6F
0C
65
19
70
09
11
7E
69
16
0B
75
76
01
1D
0A
68
01
0A
7C
11
02
6C
6D
1A
17
68
68
19
02
0B
76
1A
6D
1D
7D
19
72
7E
02
63
01
0A
61
68
1E
79
7A
64
05
0F
18
66
68
10
19
6E
63
05
65
02
1A
70
13
17
08
06
05
12
0F
00
6F
72
14
6C
75
7F
06
78
09
01
06
15
7A
68
7B
73
0D
06
65
6C
10
05
6F
72
0C
02
6A
00
7E
0C
78
64
68
04
1D
73
7A
75
79
0A
16
7D
07
0E
01
6A
09
18
6A
65
09
1A
77
75
6A
19
6D
64
01
71
7D
1B
74
78
05
04
1A
0B
10
7A
11
6A
1A
6F
18
10
1B
0C
7C
77
7D
6E
16
0C
12
1B
15
69
64
75
07
01
7A
72
6E
10
64
19
20
0D
00
65
04
06
72
71
03
18
0E
17
71
76
75
13
79
76
02
20
68
7E
70
0B
05
08
1C
66
14
09
70
69
16
06
08
6D
72
06
0D
02
0C
63
6C
0F
73
79
0D
6D
69
12
76
6A
65
01
73
19
7A
79
17
0F
6D
62
69
76
7D
72
11
66
72
14
00
14
0D
21
1B
6C
03
7E
03
11
0E
12
7C
13
6F
7F
71
0C
1A
68
17
6B
03
18
6B
6D
6F
12
6E
6F
00
02
71
6D
70
04
62
14
72
02
14
01
6B
7A
03
7F
66
6C
64
7F
09
02
68
65
70
6B
18
74
0B
73
01
18
72
75
03
78
17
0D
6D
02
1A
18
76
18
02
6C
62
76
66
0B
65
14
0D
12
15
70
16
16
60
78
00
02
67
1F
77
1D
7D
02
6F
01
03
77
75
08
00
64
7E
6D
02
71
06
23
61
06
6C
1B
6C
15
0D
0F
1B
17
78
74
65
07
71
07
0B
01
69
5F
76
76
0F
16
19
66
0B
19
0B
7D
12
05
06
78
6A
01
64
6B
10
67
06
71
1C
12
66
07
19
63
11
0E
0D
71
6F
67
77
13
63
0F
12
78
1A
17
05
00
29
0D
03
66
68
03
7A
67
05
0F
0B
7C
7D
07
0E
6A
01
03
73
13
6F
7F
0C
19
0A
00
6E
6C
00
7D
0C
1C
10
10
12
67
61
01
00
11
14
7B
1A
7A
73
7D
1A
69
14
07
63
0F
0A
03
16
19
7B
68
00
7C
6D
7A
63
64
72
17
0E
06
70
68
20
6A
7C
08
12
00
08
7B
7E
7B
6A
15
0E
06
0B
78
01
6B
68
00
05
15
1A
0D
64
15
11
6D
12
05
1C
7D
77
0D
73
11
1D
7F
64
14
0D
0B
04
0F
0B
74
61
69
7E
0F
68
11
79
6A
02
19
1A
04
02
18
73
7D
74
6F
7A
17
09
08
18
1C
62
02
16
6B
6E
7D
79
1A
65
73
06
6A
08
08
6B
15
13
69
04
61
0D
0B
19
0A
04
6F
18
13
65
5E
74
7A
11
14
72
14
0E
05
16
6E
6C
65
6B
7E
09
7E
13
72
5D
6B
76
19
09
06
76
0D
1E
69
6C
71
0A
64
76
05
01
78
1A
0A
75
78
76
26
12
06
14
6D
66
70
70
10
16
0B
1C
6A
09
7B
19
67
0A
16
6C
7B
0F
03
12
05
03
6C
18
76
6B
67
13
70
5E
66
7C
75
64
18
70
07
7F
65
0A
05
62
1A
69
0E
10
0F
11
70
08
6E
69
6E
7B
0F
0D
7C
67
79
78
0C
77
70
63
00
6F
67
6B
6F
6E
0A
7A
7B
15
02
0B
63
25
0C
22
74
07
11
7D
77
08
01
10
71
06
7A
1A
6F
12
65
1A
05
64
6E
79
79
71
1C
1D
74
09
00
08
14
1C
06
73
15
76
66
1B
18
6C
09
12
15
09
64
7D
14
75
76
1C
1B
79
7C
0F
78
6B
74
00
02
66
14
05
64
0A
74
7B
0A
0D
6D
68
64
69
79
7F
20
68
0F
74
15
7F
78
0E
5C
7E
0D
68
70
7F
6C
1F
11
13
73
01
13
0D
0E
6C
65
75
00
19
10
1B
62
0A
0D
6D
13
7C
19
72
09
11
72
7B
79
0F
63
1C
66
6E
5B
1A
74
70
70
7D
1A
76
1A
63
70
6A
67
70
14
6B
22
17
05
7F
61
7D
02
13
67
14
00
75
09
5B
1A
1F
24
5D
1A
12
6B
1E
6B
77
6B
13
67
6F
02
72
62
70
09
69
79
6D
7F
71
1A
00
05
7A
7A
1A
15
74
07
01
5E
66
13
77
06
26
06
08
71
07
0D
16
1C
14
1B
18
22
16
12
7F
1A
79
09
6A
0E
7E
0D
07
6B
0D
0B
1A
0D
78
72
08
20
16
77
0E
67
17
0A
01
1C
64
6E
20
0F
65
0E
02
15
74
13
77
1B
0C
77
7D
70
72
12
00
6E
70
0C
63
7C
1D
63
08
6E
73
0C
0F
16
6B
0A
00
06
07
12
08
0D
07
7B
73
5E
13
13
72
75
12
64
22
1C
61
6F
00
7C
14
0C
03
63
19
0F
73
04
6D
61
19
63
6D
78
75
1A
0E
79
6B
09
78
1A
16
0C
63
75
7F
09
72
72
02
6B
15
0C
16
14
76
70
7D
11
79
03
06
00
0A
64
6C
67
62
6B
75
70
63
74
76
68
00
77
73
1A
12
0F
74
17
0D
68
78
62
0E
05
19
70
72
6C
6E
74
1A
63
15
05
66
60
12
71
05
77
7A
77
7D
7A
19
60
6F
6F
01
0C
08
65
1A
7B
03
0C
77
74
0E
7D
7F
7B
6E
7A
01
70
69
05
64
64
67
10
68
08
14
6A
24
6C
70
01
0F
0E
7F
6F
62
75
04
70
78
7C
61
0B
73
75
7A
68
0F
70
71
6B
0D
68
6F
06
1B
69
07
02
15
6F
03
7F
06
0C
74
03
71
18
0D
78
0D
0B
6F
77
1C
73
76
7E
15
06
74
6E
00
0C
01
0B
72
04
67
1C
75
17
60
10
0B
7F
20
6E
01
7A
14
63
11
75
6D
02
05
0D
66
76
6B
0B
7A
7C
79
72
7B
12
08
09
78
73
12
07
7E
7F
66
70
0E
7B
11
7F
6F
79
00
69
19
04
01
74
76
01
07
6F
0F
66
63
76
03
0D
7A
09
14
74
64
72
67
68
71
6C
66
6F
18
10
6F
7D
6A
0B
7B
16
06
10
74
75
76
11
1C
65
03
17
04
71
7F
10
03
79
6A
7E
1C
18
08
10
1A
63
13
6F
07
03
07
1A
7D
74
73
7B
03
7A
76
0C
6D
0F
64
6D
07
7F
6B
05
71
0E
01
08
00
17
13
67
7F
08
08
6B
66
12
1B
6C
6D
15
66
1E
68
0D
00
11
11
0D
06
04
0D
6F
66
7E
68
77
68
60
13
7D
7B
16
76
77
1A
06
79
17
70
1A
19
12
1A
14
6F
16
63
02
77
01
01
06
7E
13
0B
02
7B
65
14
6D
74
6B
15
6E
04
08
71
73
15
1B
0B
73
79
0B
62
0A
07
77
65
1B
19
65
6C
7E
6C
05
66
7F
10
77
7E
16
78
7B
07
71
75
63
04
08
7E
79
72
0F
18
18
73
1C
01
0A
72
7B
02
0F
0B
01
0D
7A
7A
17
66
09
6A
04
08
66
09
03
0F
19
00
7E
71
0D
0B
10
71
69
0F
00
7C
00
7F
13
63
64
6D
19
07
0C
04
70
70
07
18
08
11
6B
00
08
76
79
1A
6B
0A
64
18
7B
1A
7E
10
11
75
08
15
00
75
09
6B
06
03
7E
10
62
17
63
7B
13
09
65
78
6F
6A
7F
0C
64
08
18
7D
79
0F
71
0E
01
7C
77
0E
72
06
7B
7C
02
17
11
70
75
7C
18
0A
7A
79
74
14
6A
13
14
07
6A
00
0E
6E
0C
1A
6D
16
05
0D
13
69
6C
05
79
70
67
01
1B
0E
06
00
0B
14
0C
60
7F
65
02
70
18
63
67
1A
79
0D
71
1A
7E
06
04
0E
01
70
6B
69
62
04
69
00
12
11
63
03
7E
09
06
76
7A
77
0D
21
1B
1A
66
01
71
7A
7E
0A
7B
07
6E
0F
16
67
68
7A
7C
6B
15
6F
7B
71
6F
72
69
6A
79
07
07
19
73
6D
77
0D
03
13
15
00
0B
77
07
04
77
77
63
68
18
7E
7B
6D
66
7F
69
73
02
05
70
67
1D
11
0A
6B
65
5F
0C
00
11
66
00
69
68
19
7E
67
67
16
64
64
68
7B
10
71
09
09
02
7D
16
0F
18
7D
67
0E
17
03
12
7C
0F
72
6B
65
66
0C
7F
0D
04
12
7F
0B
79
09
13
78
14
6C
66
0E
73
73
03
70
19
16
20
19
6A
72
1B
7F
0F
09
64
6E
1B
0C
02
6E
7D
6A
07
0A
12
12
6C
1A
17
74
0C
72
7A
00
12
13
03
18
6F
12
0C
0A
07
7C
19
21
1A
7F
0A
6A
76
74
70
1B
67
1A
64
04
6F
12
67
75
77
17
01
1C
14
73
0F
7E
6F
09
02
0B
0F
10
6D
69
74
02
7D
06
6D
64
7C
66
0F
6E
10
6E
10
66
76
6D
60
70
1C
73
0B
63
0D
6D
21
67
6C
10
0D
11
0E
04
00
00
67
18
7F
67
68
19
0C
6E
6A
1A
72
65
7A
7C
15
75
03
01
74
1B
0D
0A
09
14
09
67
17
05
08
17
73
06
06
07
6C
03
7D
0A
15
18
17
71
04
7A
0F
14
7B
0D
07
03
7F
10
76
7C
7F
01
66
0F
03
18
06
03
10
7A
0E
69
01
76
10
21
6C
70
0B
06
11
10
60
15
0C
1A
77
0D
73
63
0A
0D
5B
7F
64
78
0A
18
07
17
1B
08
79
6E
6F
7D
20
02
6C
17
09
07
0C
66
66
75
07
7B
75
79
77
5C
05
7C
16
5B
19
5D
70
77
04
0A
0D
1E
1C
74
06
72
67
03
1B
1B
0D
1B
0B
18
7F
76
08
6E
70
78
72
77
70
74
5A
0A
76
7F
77
0C
75
7C
79
69
7A
06
78
01
0B
0E
14
6F
7D
72
73
03
6E
68
01
1B
10
1B
17
0B
7F
00
7D
07
05
71
19
1E
6F
6E
6A
7A
71
6D
01
11
01
18
66
13
6F
0F
0E
13
03
7D
11
0B
75
0A
0C
0D
7B
07
7D
0E
0D
66
11
1F
71
18
6B
66
76
6C
1C
77
1F
77
78
7E
00
0E
19
10
7D
10
0F
71
65
66
03
15
78
77
25
6D
07
5F
04
13
7F
0F
7D
1C
7E
1A
7F
08
64
02
6A
02
0B
0D
11
79
64
12
10
08
7D
79
0B
77
79
7C
6C
67
62
66
67
0E
64
1F
72
11
64
78
03
19
11
78
77
13
1A
0B
6F
64
1B
15
77
09
05
75
1A
72
7A
11
16
71
71
13
79
24
7F
62
0F
75
18
10
03
61
65
7C
7C
1C
7A
01
08
17
17
71
65
71
16
09
72
65
1C
70
11
04
7C
76
70
1E
0A
1C
18
6F
12
77
14
77
7B
73
0A
05
7D
76
61
11
0E
68
02
06
69
17
06
68
02
1B
09
7E
1A
6E
21
0A
70
66
7D
77
07
1B
06
78
03
67
13
09
7A
74
74
72
79
11
70
12
69
17
0A
68
7B
11
09
68
11
02
0B
17
02
02
70
7C
5E
06
66
6A
6F
6B
1E
75
75
63
6A
02
76
1B
63
6B
63
1A
70
68
6A
1E
76
69
79
0C
76
70
6C
77
16
13
07
22
05
03
15
18
62
11
75
09
1D
1C
03
1A
70
13
1B
0C
63
6D
73
7F
7E
0D
6B
76
6A
11
1B
18
71
6E
7B
69
70
70
14
6E
73
05
66
17
7E
15
05
04
03
18
6A
0C
7C
7C
0B
0C
21
10
7F
72
15
21
6A
0C
7D
14
79
78
0D
7C
0E
18
70
01
02
6E
0B
6F
69
7C
69
67
0F
72
6A
67
71
00
18
0C
1A
06
00
08
0C
18
6E
19
00
6B
0D
15
74
6D
07
0A
11
73
63
68
7C
0E
79
7B
6E
74
72
13
76
15
05
71
06
67
19
0A
01
08
63
11
72
7C
0A
0B
79
67
7C
76
01
68
7A
05
06
77
11
7D
63
16
79
11
10
19
67
73
6D
74
6C
74
1A
7F
63
14
69
10
0C
19
22
63
06
65
08
0D
70
18
66
7E
02
04
0C
0C
07
03
63
1A
6C
60
7F
7F
79
0F
6E
78
62
1E
16
7B
0A
7B
79
6E
70
79
6E
09
78
63
67
13
63
13
66
17
12
77
0A
0D
01
79
04
0A
7A
03
77
73
6A
74
11
79
63
66
16
09
00
18
73
04
18
75
79
63
05
74
00
78
18
16
70
08
08
6C
0F
12
78
65
69
14
02
0A
6C
76
7D
7C
71
0B
13
06
15
0B
72
78
74
7E
08
77
06
75
7B
69
05
0F
03
0F
10
77
63
6E
6A
15
10
61
0A
6F
1B
07
0F
00
6D
15
03
1B
00
6E
6A
6B
22
1C
72
7E
0B
22
73
6D
72
12
1A
03
0A
7E
6C
7C
02
78
00
13
77
0C
0E
16
18
7F
06
70
17
10
0B
1B
65
74
79
15
15
1C
77
6F
04
19
78
11
7E
05
73
67
0B
63
71
7B
0A
18
71
7C
7F
6B
0C
1B
0F
6C
77
0B
21
0E
6C
06
05
69
7E
70
70
7D
70
19
6A
08
69
7E
04
7E
7B
08
00
69
10
7F
64
66
0E
7B
01
71
7F
79
70
16
17
06
7D
14
69
19
65
01
7E
1B
7E
15
0B
1F
7A
14
77
78
02
16
6A
69
1A
13
14
05
09
7A
0A
63
73
14
74
6D
15
64
19
6F
0C
0F
65
0E
7D
7E
10
02
75
78
75
21
6D
76
79
1C
7E
66
1B
77
7F
11
16
6F
09
7C
00
06
74
7C
6F
06
13
08
02
68
71
1E
65
04
67
73
74
7A
09
61
08
0B
00
04
06
0F
6F
67
67
14
7E
65
6A
0B
71
7A
0A
09
10
71
63
05
01
1F
69
15
6F
72
74
0A
66
14
78
1B
66
10
70
64
27
03
7A
14
0D
7A
66
64
73
12
7B
63
78
7C
79
7F
66
73
7E
04
6B
0D
75
10
74
72
17
64
7A
11
06
66
0A
10
6D
77
0A
09
6E
03
08
5D
7E
00
7A
03
67
66
14
73
7A
00
0F
1A
70
77
0F
74
72
79
74
79
6E
75
11
1A
65
73
6D
72
64
6E
71
63
1C
06
10
03
6D
0E
10
19
18
01
16
08
7B
66
03
67
04
04
1D
7C
65
06
74
61
6F
6F
7F
13
75
10
67
6D
06
10
0D
5F
78
12
14
6F
75
79
07
72
14
6B
7B
69
64
07
76
70
6F
1A
17
7F
72
00
79
19
1B
01
79
6A
7A
79
1F
13
6F
7C
7B
74
64
68
1B
1A
0D
77
76
16
1A
0F
08
06
72
68
70
09
19
1B
1A
11
13
7C
6F
08
7E
04
64
1D
10
0F
60
69
7E
1D
76
1A
72
17
0E
06
63
62
7D
78
17
6C
72
1B
6D
78
71
07
1B
6C
0F
7B
7E
10
0E
7A
0B
18
68
64
19
02
70
64
16
69
73
79
6B
67
65
7C
10
7E
04
08
1B
1B
06
7B
10
66
10
73
12
02
6C
02
7D
7D
0C
6E
6E
75
64
7E
0A
03
0A
64
66
10
13
00
64
6E
26
76
6F
01
12
08
16
77
75
7D
74
66
77
02
19
75
7C
24
78
0E
64
6D
04
7F
02
02
02
75
7E
11
07
0C
01
69
1B
75
14
07
18
79
71
00
1B
16
07
5F
73
15
77
02
6C
65
76
7F
18
6D
7E
6A
7E
1E
68
6D
08
6D
7D
75
0E
7B
15
70
76
01
73
18
72
65
10
74
04
6B
0E
1B
79
0A
64
74
65
06
00
65
1E
73
03
18
08
7C
16
68
75
12
74
10
7B
69
6C
7E
63
6F
0D
07
11
04
76
09
7D
0F
70
71
15
20
17
64
02
72
64
6C
78
04
0F
72
15
64
18
6E
7F
68
69
02
6B
6B
06
08
7E
05
15
1B
12
7F
69
16
6A
79
1D
02
6F
0A
0E
0A
0D
08
18
03
72
16
6E
18
79
7C
0C
7D
0D
7A
0D
71
7F
66
17
1E
0B
7B
07
79
0E
0D
6C
78
0B
08
76
03
74
73
15
13
78
6C
6C
78
1A
72
06
74
06
78
5F
65
6F
69
12
0C
74
03
19
05
01
6F
71
7A
02
1A
08
7A
07
64
0B
0C
0F
08
75
78
00
0D
70
6A
06
16
76
07
73
68
11
04
74
15
6F
09
07
10
74
6C
08
6C
0F
77
6A
74
0A
78
7D
1B
1A
03
69
13
7F
02
0D
1C
69
6E
65
66
10
71
01
07
0F
61
0B
6F
0A
6A
00
78
1D
6A
75
79
69
61
6B
6D
78
0A
7B
0A
73
12
0B
73
0E
78
79
05
7B
15
0B
64
0A
21
13
0C
05
75
76
1E
1B
12
78
79
25
69
10
19
12
06
0D
77
0B
1B
72
09
6B
00
03
01
73
73
6D
73
63
7F
78
67
00
71
1E
06
7A
02
1A
13
17
70
18
68
68
13
76
04
76
7F
65
27
21
59
74
69
04
22
08
5C
72
6F
7E
79
70
0C
73
7B
7C
7D
01
10
0E
0E
12
6E
79
13
15
7B
1A
6D
76
1A
7B
08
7D
64
6B
1F
72
00
14
17
7B
01
0D
19
1F
7E
09
75
01
7E
7E
01
03
7E
58
16
67
1B
61
5B
06
1F
7C
5C
0A
7A
17
20
13
68
68
0E
01
22
78
19
6F
6A
0E
6A
0C
19
14
68
15
78
63
12
0C
6B
71
78
07
71
0D
11
65
7F
15
0E
16
08
1B
6B
11
79
0F
7F
19
72
0B
03
69
07
04
64
6D
08
67
7A
77
6C
6D
0E
09
00
7D
06
07
08
03
01
77
77
7C
08
1A
0F
00
12
65
71
64
12
02
6D
7D
07
74
11
6B
04
6C
72
01
67
69
17
71
08
67
1A
6D
0E
1C
74
0D
61
05
70
16
17
16
0B
03
6B
6E
74
6C
0B
07
11
02
05
71
6C
01
7F
77
6D
76
61
77
5E
16
05
6D
03
63
71
63
7D
07
01
0F
76
6C
68
6F
0C
00
70
68
16
7D
6F
04
74
7F
6C
0F
64
10
75
74
73
05
77
74
22
08
15
03
77
6A
03
7D
0D
76
68
01
18
6E
7A
6D
69
0F
70
0F
67
0C
0D
7C
04
20
7F
74
18
0E
72
7C
02
18
6F
64
0E
75
7C
6B
72
7D
68
6B
78
72
18
73
65
6E
00
6F
0D
74
67
00
05
7B
04
65
15
66
18
7A
6F
09
6B
03
74
63
0F
17
17
0C
13
0F
0F
64
15
75
6A
0A
7A
6F
74
77
7A
68
18
18
66
06
10
14
7E
00
16
6B
0C
7F
08
7D
6A
14
7E
04
16
19
78
6C
01
63
7A
64
66
06
78
19
15
20
1A
74
12
0B
10
77
79
11
7B
01
0A
1B
16
78
08
73
77
09
0E
6B
0A
1A
24
0D
04
25
70
7F
6A
74
15
72
62
79
21
7D
0B
13
07
64
75
68
79
72
7C
0B
7A
05
7F
7E
66
16
0E
5D
03
69
72
7B
01
7A
0B
06
7D
0B
7B
79
6A
63
0F
1B
79
1A
18
64
66
1A
1B
11
0B
70
66
6A
01
65
76
7C
09
10
0A
72
7C
6E
1A
73
08
1B
00
74
7D
7D
26
5C
62
03
13
02
04
76
06
7E
69
0D
66
6F
17
06
7C
70
13
6C
71
66
7F
7A
0E
6D
13
14
65
28
17
06
6A
7A
0A
7E
73
68
02
73
0C
69
7C
77
19
66
6D
0D
75
74
1A
70
08
20
10
16
01
04
13
0D
0E
0B
1B
06
1F
73
0F
17
1F
79
5F
09
7D
66
13
15
11
7A
6C
07
7B
6F
72
18
08
19
7D
70
65
7A
0A
6E
6F
74
12
1C
7A
72
7F
6F
17
7B
6A
74
7B
08
7F
03
7B
7E
08
73
0E
6A
7F
07
78
78
0E
6F
14
73
75
6A
63
0A
74
77
71
0B
63
6C
7A
71
16
77
7B
6F
6E
6A
68
00
7F
78
02
68
7A
69
0B
04
70
6B
00
18
6C
0A
7C
66
1C
7B
13
78
15
14
0A
6C
62
1B
77
01
02
74
10
1E
76
0C
71
6F
19
71
08
01
65
7E
7A
0D
09
00
03
0C
02
18
0F
74
71
72
07
68
15
70
6C
08
08
17
17
73
04
6C
65
26
02
72
6A
65
16
79
12
6B
03
76
19
12
70
66
0D
6F
08
69
00
1A
0E
69
70
13
16
09
6C
13
08
02
63
7F
5C
1C
63
0D
0F
79
7D
18
06
6F
0F
7C
6E
7E
7B
09
23
66
7F
78
1A
65
77
6D
05
69
0F
61
0A
08
78
1A
6F
6D
6A
0C
00
1C
0D
07
75
0F
1A
0E
6A
12
7A
7F
1D
10
6F
0C
61
7B
67
70
15
00
6B
77
0D
7B
08
7A
60
6E
78
61
16
04
65
08
18
04
76
0C
61
05
6B
68
0F
78
16
07
78
67
0F
0A
1B
7B
75
76
00
06
12
02
6F
67
63
16
00
09
63
75
6E
19
63
01
7C
79
73
0F
16
0C
6E
17
72
72
6B
6D
09
7E
7B
04
12
7C
0E
7A
6B
71
1B
0A
07
00
77
08
0D
74
65
15
71
0C
77
77
76
79
22
18
14
07
6E
1C
10
78
02
18
6C
1B
73
05
10
78
6A
6E
04
09
05
0E
78
0B
63
13
6B
0B
72
17
04
65
16
64
75
70
6E
65
16
1E
74
04
0D
08
07
7F
0D
06
65
74
73
73
0B
6E
1A
6C
0F
0A
12
15
03
00
6F
02
78
6B
6A
6D
00
71
63
7B
6B
6F
02
02
68
7F
0C
09
19
1A
76
02
70
71
75
7E
73
75
14
6C
6A
1A
25
66
12
1A
00
04
7A
68
0A
74
03
24
05
16
0A
7D
78
71
00
68
68
73
6F
0E
7C
63
2A
02
78
0F
60
6C
0F
6C
0A
0F
74
06
7E
07
6F
79
76
7E
73
13
6D
14
68
75
0A
71
6E
70
0E
16
6F
08
06
0A
15
19
7C
02
04
79
1A
00
68
10
08
11
14
09
0A
14
16
67
7A
6C
79
69
69
7A
6C
0C
7F
63
73
00
7A
0A
76
05
08
19
09
65
6A
15
25
75
03
66
74
18
19
1A
1B
0B
07
7D
15
79
04
00
62
14
6C
7E
01
1B
0F
08
7D
6D
0D
70
7D
18
0F
74
16
05
7C
65
08
1D
68
22
66
03
77
11
78
0A
67
61
76
12
65
64
08
0F
75
75
03
7F
61
05
1A
73
70
7F
6D
0B
70
0D
74
11
6F
63
74
62
75
16
7B
0E
6A
16
66
6F
76
7E
6C
14
7C
7B
7C
6A
10
63
26
07
6E
11
61
0B
18
7C
0C
22
0C
1B
6B
05
0B
02
11
71
6F
62
0B
65
7B
07
0B
64
27
00
5D
6C
6A
10
1B
69
6B
7C
13
66
71
04
17
69
01
65
75
76
67
1F
6D
14
0E
6F
69
08
73
05
05
0B
0E
58
6D
66
69
64
7D
7B
1C
70
11
0B
1C
19
72
22
6E
0B
03
71
14
0C
6F
7C
78
0A
6E
0A
13
12
06
1A
1D
77
6E
73
79
23
7D
77
0D
77
22
03
19
78
16
0E
6D
73
76
01
72
71
7E
0C
01
77
65
12
0B
0A
72
19
09
65
04
14
09
63
14
6D
1B
66
01
15
7F
6F
7E
1B
04
77
7C
1B
70
72
79
00
7D
05
03
05
16
7E
7D
18
1F
20
5E
77
5E
06
27
0B
7D
6C
12
6A
1D
17
17
65
1F
13
02
0B
07
03
05
69
0C
0E
69
7A
14
7B
64
78
63
60
04
0B
02
63
24
65
77
0D
0F
6F
04
01
68
0B
6D
7F
1D
0B
14
68
04
14
68
5B
0E
11
01
7D
01
7E
1D
06
04
77
7F
06
13
14
75
6E
08
7D
0F
67
66
79
6E
08
19
02
0A
0D
0C
7E
17
65
75
68
7C
64
70
61
03
03
01
7C
79
75
27
76
23
6B
14
01
01
68
0D
0C
67
07
11
05
15
67
01
06
19
04
64
7B
03
01
0C
71
18
0F
5E
72
6A
20
26
06
7D
17
74
66
1B
02
12
00
05
73
0A
13
17
0E
16
6C
63
16
68
02
03
64
6A
79
04
07
18
70
7C
7D
0B
7B
17
7E
6A
0B
7E
6C
61
23
67
6F
04
0F
6B
70
61
78
13
73
0B
7C
6D
6A
70
06
21
10
0F
72
79
14
03
74
08
6A
23
66
0D
73
6B
00
6D
70
67
79
6C
7F
67
14
1B
6E
70
68
67
03
7F
04
17
12
69
02
63
0E
01
1A
76
6D
06
05
14
18
72
13
1A
75
07
7C
0D
14
70
00
75
0E
05
08
66
10
0B
0C
17
7E
63
0B
64
6D
16
0A
75
72
08
0A
71
07
6E
16
03
0D
6B
65
19
7A
66
15
7B
68
71
7D
02
13
11
7A
06
0E
7C
09
65
63
02
10
1F
7D
0E
68
06
08
0E
17
72
17
6F
00
68
01
01
04
12
6A
67
0A
79
16
75
7B
0A
09
5D
1A
07
14
16
6E
14
03
7F
0B
16
68
08
05
64
72
63
11
11
7A
6B
6F
72
6A
6E
79
1C
1B
06
6F
0F
1B
7D
67
11
02
66
0C
11
74
64
25
19
7D
7E
77
77
72
6D
71
0E
76
10
0F
7B
14
1C
17
77
69
07
73
65
67
13
62
06
75
03
70
0A
09
7C
11
1C
0B
7C
0F
74
19
63
13
19
00
63
02
12
06
66
12
65
05
74
6E
16
16
0E
05
03
05
0D
12
65
6F
7A
7B
1A
6F
00
6D
03
71
6C
01
0F
14
7D
1C
16
14
67
0F
6D
68
09
79
5B
76
77
70
1F
05
03
65
03
09
09
6A
1C
00
1A
01
73
6E
76
7F
7E
60
0C
7C
14
1A
6F
75
0A
03
78
71
69
79
05
1A
03
1D
7E
68
75
74
13
00
16
75
65
6F
0D
5F
5E
1C
67
1A
29
67
65
1B
16
1C
64
0E
11
67
05
6B
23
63
2A
63
5A
0A
2B
6A
09
67
18
0E
0E
79
71
79
6A
07
67
7C
73
13
66
63
07
7E
68
15
0E
17
12
14
70
15
6A
79
59
1B
70
1B
12
7D
19
09
77
5E
75
13
6A
75
64
79
09
71
7C
05
79
0C
67
08
05
0E
0C
64
07
1A
28
08
7F
06
0F
7D
78
73
03
77
07
10
0C
18
79
7B
10
04
1A
63
1C
0C
72
66
7F
10
7F
06
17
6F
73
64
65
1C
71
10
12
12
1C
03
1A
67
7F
07
1B
65
00
7C
79
14
0E
05
74
06
13
0A
0B
10
14
08
7F
03
22
7E
6F
6D
69
11
13
66
03
16
1A
70
77
15
15
0C
19
17
63
1F
04
07
0A
0B
77
6C
7F
08
04
68
06
79
1B
02
1B
6E
6D
69
73
6C
72
08
08
0D
09
1C
70
21
09
05
05
63
77
67
79
1A
77
03
0A
14
0A
6C
72
6B
75
73
70
68
73
78
0B
19
05
06
11
78
03
02
6F
0C
78
70
66
76
6C
0B
05
6B
63
03
76
00
6B
64
7D
7E
6F
02
11
6B
74
75
0D
07
78
08
0B
14
71
13
73
1D
7B
78
03
09
6E
69
07
04
6F
6C
07
70
0E
0C
7E
6E
66
68
1E
08
00
01
7A
0D
01
08
0A
6A
76
73
09
7B
12
03
05
78
75
6C
16
06
65
66
69
07
7E
18
67
07
7E
71
71
0A
77
0C
06
1B
0C
1E
0E
14
70
18
6F
69
0F
7B
75
6B
69
00
16
1E
6A
06
08
7F
09
75
00
0A
0D
77
6A
05
67
69
7B
03
6B
19
08
0C
06
16
75
0C
7D
6A
05
1E
7A
12
64
6B
7E
6A
12
62
64
09
7A
01
15
03
6F
06
0C
10
6A
18
6A
72
63
08
6A
0A
7F
03
07
78
0A
79
70
76
02
09
66
6D
09
68
1B
15
7A
13
11
19
1A
76
0B
15
78
14
14
0B
19
00
0F
04
71
7E
0D
6F
79
26
66
12
66
01
6C
6A
0C
6C
1C
63
10
01
6A
00
73
0A
10
19
03
63
62
7C
78
68
7F
7D
69
03
01
69
67
7F
62
6B
10
70
06
6A
66
07
70
0B
79
05
6B
7E
5C
10
01
72
77
76
1F
7A
11
15
65
65
6F
11
6A
6E
72
05
0A
71
74
0A
78
09
06
68
6D
02
09
05
09
1B
70
11
1C
15
0D
12
6D
59
76
12
04
79
07
26
0A
09
71
70
5A
04
6F
57
69
69
08
61
6C
76
77
77
60
11
59
20
00
74
57
00
15
08
69
63
0F
74
1F
1B
6C
76
72
1F
13
6C
73
6E
16
0F
02
00
79
67
6D
73
70
77
63
15
7C
05
7C
6E
6E
67
02
17
7B
12
0B
0B
76
14
18
6B
5F
06
1A
6F
79
15
04
70
04
02
05
25
7C
18
7C
08
7A
0B
55
13
20
73
00
02
04
00
75
63
71
6D
1C
79
1A
0B
75
13
10
09
0B
6D
75
63
19
00
65
1B
6C
13
12
01
05
6A
79
64
18
71
0B
7A
1A
77
01
0B
64
03
0B
15
13
05
7F
7A
66
12
70
7D
17
1E
64
15
0B
21
07
0D
05
08
75
11
03
64
0E
0A
6A
74
1B
7D
1A
19
18
7C
0A
76
11
65
08
11
6E
7B
6A
0F
7B
6F
7A
0F
04
13
11
6C
7E
61
17
68
7B
1F
77
02
1C
15
0D
64
70
1A
18
72
7D
06
67
11
64
11
79
1B
75
7F
0E
15
0F
7B
59
6D
7D
64
1B
11
05
7A
10
0B
06
7C
10
76
0B
0C
16
65
13
72
76
76
72
16
08
09
6B
12
68
13
0E
07
0B
78
09
07
6C
6F
72
0B
65
76
1D
7D
7F
1A
06
68
7C
61
01
75
6D
7A
70
12
71
0E
03
12
62
06
18
6E
61
78
7D
73
19
65
19
69
77
14
69
7B
00
05
03
7F
05
0B
79
67
74
04
0E
1A
66
5E
6F
72
01
65
19
12
07
00
61
61
72
15
1A
19
01
22
76
74
6E
61
10
0B
04
6E
64
12
08
76
00
67
1A
07
07
07
04
04
1F
6F
63
72
7B
63
79
00
62
62
10
62
69
70
0E
76
16
7D
7A
13
71
12
68
0F
0A
73
13
03
78
01
02
09
1E
63
1B
01
14
05
02
6F
02
1E
6B
20
18
17
73
13
0D
16
7C
6D
7A
66
6A
0E
5B
68
71
25
0B
04
79
09
70
75
6D
1B
7C
10
73
6E
6E
7F
7D
10
63
0C
05
7B
6D
14
0A
0A
0B
7A
66
02
17
11
75
71
1B
65
15
7C
26
64
02
76
10
60
01
7D
06
00
10
1D
7D
68
63
6F
5F
67
0B
79
07
64
1A
68
67
03
0D
74
08
12
5B
0B
1D
64
67
0D
11
03
12
0D
08
19
77
62
65
72
02
6D
72
6D
17
03
18
01
00
6D
13
1B
70
66
08
6B
1C
00
6F
0C
0B
7C
18
7D
6B
19
7C
0C
7F
7F
13
06
76
17
71
02
76
6D
15
19
68
68
79
6A
14
19
7D
7B
13
75
0D
63
07
09
09
79
6D
76
7E
74
76
69
14
11
12
08
6D
6A
03
7E
7D
7C
72
6F
6D
6A
0B
7D
13
72
68
03
1B
6D
1B
7E
73
7E
78
04
10
21
69
7A
68
1A
71
07
69
00
0B
68
78
63
13
00
6B
1C
1B
1F
71
00
10
11
06
65
13
02
1D
1A
10
05
7B
02
62
1A
06
02
0A
13
03
6E
73
13
1C
78
01
17
7A
6E
14
00
05
66
18
14
63
65
0F
62
77
6F
02
11
18
7A
12
01
0B
7E
11
12
20
72
6F
0C
13
66
19
16
13
77
7D
00
19
62
73
7A
0D
7F
03
0C
6C
6D
01
63
72
64
67
00
03
1A
6A
6E
78
10
06
08
75
7B
1A
6F
13
00
6F
0A
07
11
03
79
06
65
01
7A
13
0B
7A
19
12
59
7A
5D
16
13
19
10
07
11
64
78
66
0D
0B
03
6E
05
5F
68
78
0E
0D
13
02
6F
18
79
5E
13
01
0D
78
6F
0A
13
0C
6A
1C
6D
7C
6F
7A
05
72
69
6E
7A
08
19
7D
07
02
15
7D
7F
67
64
02
7E
69
7C
73
6B
10
65
67
6C
76
7E
10
06
00
10
7C
07
68
63
7C
7D
21
07
74
6C
24
6C
72
06
77
01
0A
65
77
06
7A
7E
07
74
0E
16
7C
15
6F
6C
1B
02
03
0A
77
13
0B
76
17
78
74
7E
6F
04
73
6B
7E
73
59
66
01
21
0E
7F
0F
6C
7A
63
0F
05
7C
1A
28
12
74
16
74
66
63
03
1D
75
5B
6D
22
05
15
04
08
71
1C
71
62
13
73
63
7F
0F
69
04
71
78
1C
5F
67
12
7B
68
0D
02
7A
72
18
12
76
1F
7F
74
75
1B
72
0C
0D
66
0C
08
05
07
77
62
6C
77
0F
1C
66
01
74
04
6E
22
6B
10
00
05
1D
05
0B
7D
19
64
0D
6D
02
76
00
0E
66
7D
14
7B
16
67
12
03
19
02
07
7F
05
65
77
0C
12
71
05
05
79
16
10
7C
07
71
01
0D
79
17
77
75
02
6D
17
74
70
16
0B
0B
6F
72
6A
16
11
64
73
0F
75
78
6C
00
1E
65
7B
61
1E
62
7F
72
71
03
6E
18
66
16
1D
12
76
71
71
6E
17
19
18
5F
74
75
6C
03
7C
6A
13
10
7C
6C
18
0C
6B
6A
08
17
0A
05
0F
68
1B
0E
11
6C
14
66
08
13
05
1B
68
06
1E
01
1B
77
71
02
65
0D
7A
13
7F
77
24
11
78
0B
6A
79
06
10
0E
0E
7E
65
77
62
70
77
7D
63
06
11
12
07
06
0C
63
1C
66
7B
0E
64
7A
70
63
78
08
02
64
0D
02
14
1B
06
7E
17
72
6C
06
13
02
68
69
63
10
7A
6C
72
6F
0A
74
61
6C
71
73
13
7C
79
03
67
0A
6F
6D
69
05
00
67
69
6F
02
64
60
73
7B
1A
04
11
16
66
12
14
6A
08
11
13
0D
65
1B
63
63
00
19
6D
07
7C
1B
67
1D
14
63
0F
7A
7E
64
0A
6A
18
6B
19
0E
15
1F
7E
7D
67
17
11
04
7E
61
79
7D
0D
6A
6C
11
71
14
0F
65
1B
70
78
13
1E
7A
1A
72
0C
10
7F
10
19
6F
14
63
0E
06
19
0C
16
78
0C
7F
17
10
20
75
1D
7F
66
60
09
08
74
22
76
03
78
02
6E
01
04
7D
1B
0F
68
7D
0D
11
75
04
13
0F
0B
12
6B
0F
10
77
79
17
24
70
0F
1B
76
7D
7B
63
7D
64
14
1E
75
78
16
08
74
1C
72
14
7B
7C
71
7D
07
17
04
01
0F
09
16
16
11
60
01
06
09
00
1B
6F
1E
71
74
76
71
1A
0D
07
70
1A
77
0F
68
0E
08
04
0C
10
73
17
10
04
5F
13
04
7C
1A
70
08
01
6F
69
1B
17
6D
7B
6E
13
65
0C
78
08
6E
14
14
16
0B
63
74
7E
04
6F
01
0F
14
06
76
0A
0C
02
67
23
11
17
13
73
74
0A
6A
6F
19
77
10
6C
63
6B
0D
76
0B
18
5D
70
11
7E
70
0C
71
6B
0B
71
76
67
13
0C
17
7B
11
16
69
7B
69
76
78
7A
6F
65
67
71
0E
6C
67
67
78
6E
64
17
78
6E
10
76
63
0C
11
03
79
13
6C
06
7D
70
09
0B
69
07
7D
5D
06
00
0B
68
62
08
20
24
05
6A
7C
0B
75
63
62
71
18
0E
0B
03
08
64
0C
16
0C
1D
75
72
76
08
16
77
02
01
0E
6E
10
67
0F
5D
0C
70
0F
0E
74
1A
0D
66
09
72
0B
18
12
06
6F
20
7E
6B
68
15
5A
05
12
5D
04
7B
7C
78
13
14
7A
01
7C
6E
79
16
73
01
71
03
05
18
7D
00
72
64
72
7F
63
7A
7E
76
1A
19
77
6B
0E
03
75
06
0E
74
7C
01
0C
02
17
75
7A
66
79
7D
03
5F
08
6D
6A
14
10
00
7E
0A
18
0D
0E
7F
6C
0D
03
0C
1B
04
5D
6F
7A
21
68
0A
62
0E
17
6E
64
16
09
76
73
19
10
7D
6A
16
63
6D
04
06
7F
06
07
73
0B
64
18
6B
70
73
6C
11
78
17
66
19
15
76
74
71
78
6E
72
77
64
24
1A
1D
66
7C
69
69
7C
01
7A
79
00
18
6D
72
77
0F
18
77
59
78
60
01
22
75
5B
08
74
6C
12
66
08
11
6B
76
05
7B
10
25
77
7C
14
0F
11
0C
74
14
72
12
1B
60
00
77
66
6B
79
7A
0B
76
0A
73
0C
74
0B
25
77
7E
18
10
1C
7E
12
69
68
04
03
76
6F
1A
00
64
7E
0D
0F
74
62
1B
78
70
6A
07
1A
18
78
7E
6C
74
1D
0E
78
07
13
1D
00
70
0E
75
75
03
65
04
00
7C
7A
71
1B
1C
1B
09
21
70
03
0D
7D
0C
13
0A
7F
0A
67
0E
1B
6B
01
73
7A
1C
7A
6B
1C
0E
76
14
13
04
08
74
7F
65
75
06
72
06
6C
01
0C
1A
1F
06
0F
11
0D
12
6A
63
67
10
14
6E
6E
06
15
68
71
03
01
69
1A
7E
07
7F
10
75
25
0B
08
7C
7E
70
13
19
7A
7B
7B
79
12
0F
06
74
6B
15
6C
0A
09
79
1C
67
74
79
20
6F
02
7E
63
6B
76
0E
5E
11
21
7B
0F
70
02
03
06
10
07
71
74
13
72
09
04
73
65
7C
72
01
66
14
09
16
63
14
6A
11
6A
75
0B
11
1A
7D
67
77
7A
12
7D
0C
0B
67
08
63
68
71
0B
01
72
71
19
76
6B
08
0F
17
0C
19
71
6F
0B
08
5F
65
75
1A
13
0F
74
7D
0D
16
04
71
1C
6F
68
0C
13
66
0F
04
11
02
7C
1F
03
7E
64
13
76
70
72
7D
69
7C
19
20
21
7A
0F
70
1A
7C
14
6B
76
0B
12
7C
09
00
0C
1A
6C
1A
0D
7C
65
0B
0F
77
09
6A
65
63
00
11
6C
7A
15
69
69
67
7D
60
68
00
69
0B
0C
7A
1B
07
7C
00
0B
16
77
0B
7E
26
0E
03
12
63
63
02
0B
11
77
18
14
70
74
7D
68
73
71
03
7D
62
18
11
02
23
76
1C
14
63
23
79
68
70
7F
16
21
00
02
70
1F
18
6F
63
0F
16
69
76
06
0C
66
0B
09
7F
78
02
01
78
17
0E
6A
6F
70
16
64
01
75
69
0D
6F
08
03
66
01
0A
18
6A
0C
61
74
7A
04
00
07
73
16
1D
77
03
11
67
7D
16
7D
16
04
76
72
7A
78
75
71
6B
0E
26
01
62
63
0F
7D
10
75
79
0A
68
0F
75
59
04
71
6B
03
69
76
7F
07
7D
7E
63
75
78
6D
7D
7A
6C
67
06
0C
73
00
0C
67
62
04
77
03
14
06
01
70
01
7A
0D
2A
18
0A
15
7D
06
09
76
61
23
7C
27
05
5B
74
19
06
14
6D
0B
18
00
71
09
7F
66
09
79
75
05
16
66
6E
11
6B
7C
67
01
0B
75
29
68
6B
0A
02
68
77
0C
6F
18
18
7C
0C
06
5A
06
00
6A
68
6E
19
73
66
00
2A
1C
0B
6F
79
17
0B
5E
73
08
69
02
64
5A
6A
7F
08
75
73
69
01
69
73
5C
0D
7F
6C
13
60
6C
65
0D
10
14
0F
02
06
7C
14
17
1C
7D
06
7C
14
69
78
79
0A
13
06
6B
15
18
5F
74
60
5E
64
09
6A
20
00
7C
7A
00
7E
17
15
25
1C
76
0B
10
1A
21
67
57
75
1B
02
72
6A
7B
79
71
75
6C
60
64
0D
71
07
1C
17
76
68
74
19
12
75
1C
0A
05
0D
1B
0F
18
1B
74
6B
59
71
6A
73
00
0C
12
06
0B
0C
07
7C
65
00
03
65
01
7F
06
19
04
1A
02
02
70
02
6C
63
7C
7D
08
78
1C
7B
0A
7A
16
0E
13
6F
7E
06
01
6C
67
78
1C
0D
65
7A
72
7F
06
1B
6C
05
06
16
73
17
64
68
72
06
7B
19
18
03
1E
1C
7D
7D
0C
11
7D
76
74
64
1A
02
77
24
09
00
7C
0D
0A
17
7E
77
7E
7B
1C
66
01
16
7D
6B
76
1B
79
0F
07
7A
0A
6F
1B
6C
17
70
18
08
1B
04
05
17
00
76
00
13
70
0F
7C
1A
6C
6C
76
63
71
1A
0E
22
1D
0A
17
6B
7B
00
10
10
6A
7B
04
75
69
11
02
64
01
0D
77
7C
17
7A
7E
77
0B
11
14
76
1B
0C
67
10
6E
7B
6C
77
0C
0B
69
66
02
01
06
01
1A
7C
11
09
7E
73
06
03
15
5F
78
14
71
18
75
63
76
0A
7E
09
6E
6A
65
71
0A
10
7C
67
77
65
04
09
06
6D
64
08
1B
00
7D
69
03
07
06
75
67
77
7A
1B
14
0D
7C
68
17
03
17
11
11
17
04
72
0F
27
08
79
11
12
0C
0B
0D
04
18
01
0A
06
02
68
64
0E
1D
02
7F
02
7C
7A
0C
73
10
79
6C
7E
76
79
70
03
7C
63
68
04
75
65
71
66
05
02
1B
73
7A
10
16
75
7A
7C
12
03
04
05
6C
6B
7C
08
15
13
76
7F
76
79
7B
75
0A
65
06
01
7A
07
04
71
6D
09
7A
76
16
10
16
76
7F
09
12
73
1A
73
03
7A
74
15
0C
72
07
62
72
11
14
73
6C
05
75
67
6F
09
25
04
6D
79
65
0E
19
7D
12
7A
1A
12
16
03
03
76
79
08
1C
13
0D
28
63
78
7F
7F
7D
75
71
0E
71
17
79
02
19
18
00
0C
1E
69
0D
07
05
71
1F
6D
6A
77
01
0C
71
7D
67
70
0C
7A
62
77
0C
68
66
67
62
07
78
72
5D
6F
70
0F
70
1C
6F
6C
19
04
77
7D
1B
04
71
0C
67
0E
6E
1D
6B
62
1A
6A
6A
69
67
77
06
68
6D
01
7D
13
00
63
7E
03
1B
77
16
77
15
09
73
75
0C
07
7A
74
14
6C
0C
12
00
14
7B
6A
7C
6B
00
64
04
07
05
7B
0F
03
16
1C
79
70
14
70
05
63
6D
19
00
10
72
6A
68
21
0A
7D
15
6E
02
67
71
06
73
16
67
7C
02
7B
72
01
11
64
02
1B
64
13
10
11
72
0A
6A
22
0D
03
63
16
67
7D
72
00
78
1C
15
7A
0F
74
08
7A
69
7C
13
15
01
64
04
79
0F
08
01
15
6A
04
12
11
78
63
69
0E
08
13
7F
70
68
13
11
71
79
72
04
09
6F
74
01
03
03
0B
01
08
76
60
05
06
06
22
73
70
70
01
10
03
09
18
71
74
7F
7E
72
63
78
02
1A
1A
0B
77
03
00
1D
0A
13
73
7A
6A
70
71
18
17
16
07
78
08
63
12
64
16
01
70
75
0E
74
7E
07
7E
17
60
02
67
18
19
7F
75
16
09
00
01
09
63
62
79
09
15
14
77
74
7F
61
75
0D
64
74
7C
6B
7C
70
12
77
17
61
69
62
06
09
78
0D
0E
1A
75
71
73
6B
7B
76
61
69
6F
08
06
18
7C
77
72
70
04
16
0D
6A
14
17
7F
69
69
63
0D
7C
76
6D
0C
77
73
09
74
1A
1B
12
6D
78
76
78
76
71
79
0F
69
78
12
7C
63
13
64
02
77
67
19
6D
09
0B
01
64
1A
1A
70
14
07
7C
14
15
10
12
0A
09
7D
08
1A
10
7D
7F
7A
75
17
08
7C
05
16
0E
79
66
70
05
77
09
0B
6B
01
70
11
78
23
03
6B
7E
76
6D
0B
65
17
71
62
69
74
02
67
6E
19
18
1C
08
6C
16
19
11
7B
6C
0E
1B
74
13
13
65
03
65
7B
7A
1B
03
09
1C
0A
7B
6C
1A
79
75
04
03
0B
07
02
12
6D
1C
05
6C
14
75
65
68
0F
69
72
6C
0A
78
1C
67
71
00
16
68
63
0D
70
7D
72
08
6A
63
19
0A
18
00
16
79
78
01
0F
62
14
1C
71
72
7C
17
0F
5C
6F
13
13
0E
07
67
18
64
69
0F
01
6F
15
68
68
7F
27
7C
7F
79
01
08
73
6D
06
7C
08
72
73
7A
5C
6B
0F
66
0B
7B
76
1F
12
01
14
70
11
06
6C
1C
02
5A
7C
19
14
7D
04
6D
65
7D
0F
6D
0A
70
02
7C
6F
0D
0C
0A
75
70
57
18
6F
06
62
6D
00
6E
71
05
14
7A
05
71
79
12
73
04
6B
6D
76
07
14
18
77
77
09
05
06
64
70
6A
07
13
01
7F
02
17
72
00
0A
02
17
0C
65
6F
66
25
64
62
71
0D
04
0A
70
09
65
0E
03
13
0D
0C
7D
1C
0A
7F
70
71
09
08
0D
7F
6A
17
00
65
2A
64
7D
6E
18
06
79
69
73
76
20
72
09
7D
69
6D
73
7B
7B
0B
65
29
7E
65
0C
06
79
13
6A
0E
14
09
6F
21
10
03
7E
6B
15
0B
68
6D
06
66
69
1B
12
6E
7F
13
06
74
60
1C
06
75
63
7E
06
06
7B
63
06
02
1E
69
1A
76
7F
65
11
71
64
1C
73
0D
13
6A
7B
7F
59
66
0E
65
09
0C
77
7F
19
65
7F
75
71
72
73
09
66
25
1B
00
13
7D
6C
00
09
5C
04
12
7D
07
0E
5E
16
77
03
67
5B
12
7C
7F
6F
11
02
6D
61
0B
6B
6F
28
0C
6C
12
02
5E
71
11
15
67
73
71
6E
0F
7A
66
7A
0A
65
74
00
7C
0C
73
0A
64
64
69
14
26
68
6D
59
7A
02
1E
66
66
71
07
14
64
11
07
17
07
6D
74
04
16
0E
1B
6E
76
1B
13
14
7E
7A
7C
6F
6F
7D
00
7F
06
1C
7D
15
0C
76
6C
69
11
1D
05
7C
61
65
75
7E
11
68
72
08
11
6F
0A
1A
70
73
0B
66
01
1A
7E
75
77
00
74
75
0C
68
29
16
70
05
73
6F
0C
0F
10
0D
7C
1B
08
0A
0D
08
7A
79
07
7D
16
64
08
06
67
7E
6F
14
7E
02
77
73
5C
1C
7D
76
09
67
77
67
6E
70
08
6A
12
69
25
16
66
21
1B
7A
6A
0D
7A
71
12
70
17
01
7C
7E
65
06
06
69
01
15
12
7C
18
7F
7A
6B
7B
1C
03
72
15
75
6B
12
1A
10
18
19
7B
0A
06
13
68
70
7A
6E
5F
69
0B
7D
06
19
67
19
7E
6A
7E
04
75
71
65
03
18
1B
7D
28
67
19
04
63
01
0F
73
0C
0F
15
0E
71
67
75
09
63
72
7B
76
76
13
62
77
0A
03
63
78
6A
15
06
0D
79
04
7C
03
6E
72
6E
7B
1A
7E
7E
6D
0D
71
15
00
79
79
19
07
77
73
78
78
7D
6F
12
6F
0D
72
05
7A
08
67
1A
6E
11
1F
13
6D
7D
15
76
7B
64
5F
19
74
14
60
03
1A
0E
13
03
15
6C
0E
12
69
1C
06
76
76
0B
7D
18
01
6E
7D
02
19
75
6D
17
0D
04
1F
19
13
71
66
65
0B
7F
71
21
73
6E
64
74
76
7D
18
0B
6A
14
78
6D
6F
14
66
0D
6A
0B
07
61
14
19
05
73
07
6A
71
76
6D
0C
72
70
03
75
63
12
65
19
75
67
7B
1D
78
10
64
73
6C
1D
6B
61
7E
00
0F
0B
6E
16
05
74
0C
12
66
79
06
11
7C
77
16
0B
10
61
05
7B
70
05
78
01
0A
11
77
6D
6F
22
7F
67
17
1A
1A
1A
14
05
10
1B
70
77
13
13
09
78
7D
02
0B
7A
68
09
63
6B
79
68
02
1A
04
7B
17
09
70
01
08
78
07
01
00
11
7B
0A
0A
71
69
76
63
7A
6A
00
13
09
7C
6B
70
05
7A
01
07
01
66
6D
6B
79
73
74
03
0D
6D
68
62
07
76
1C
7A
74
0B
07
18
61
13
67
7E
24
01
70
71
01
7E
7C
75
04
14
77
66
0C
6C
0A
63
1A
00
6A
0B
6F
62
0A
7E
19
61
24
6A
13
73
0F
6C
0B
0D
0D
6A
6F
08
6C
74
61
02
1C
1D
0D
05
68
6D
05
0A
18
0E
71
18
07
1A
10
09
71
1C
70
10
74
00
13
6C
6B
08
17
68
02
72
62
08
12
6A
73
66
0F
02
72
7D
68
6B
06
0A
70
15
0E
71
17
6A
16
6F
66
77
01
61
6E
79
08
02
6C
11
13
10
69
6C
7F
63
09
16
7B
03
7B
07
0B
6F
79
7E
69
69
64
74
10
0D
09
15
72
71
19
18
79
6A
71
1A
08
67
79
73
15
75
17
66
7C
79
66
72
72
00
01
71
18
04
16
00
20
12
69
00
0A
63
79
01
03
02
6F
12
61
14
71
7B
04
73
65
1B
19
6D
09
65
7A
6B
64
22
6D
64
62
04
6A
69
1A
78
1E
6F
68
7A
0C
67
6B
7D
06
16
6D
65
0E
6F
15
6A
70
7B
0B
21
76
14
79
76
7C
18
15
69
18
04
08
77
65
6D
04
66
11
6B
66
7C
11
08
0A
6A
7D
6C
64
7D
13
6F
63
17
18
0C
76
70
09
79
67
6F
00
06
79
79
22
11
13
6A
08
65
09
76
05
7B
09
7F
6C
63
6F
66
6F
16
72
7F
6A
73
03
0F
72
6D
73
03
13
0B
00
0D
0C
73
64
00
06
7A
00
0A
09
02
78
71
78
7B
0E
72
72
03
6A
07
12
10
6B
11
0E
0A
6E
6F
03
16
12
70
7D
68
67
77
0E
1A
79
18
67
0E
14
12
74
6F
65
05
7B
7A
64
05
75
6A
18
76
03
00
1F
66
01
69
00
76
76
0B
7D
7E
60
73
64
03
0F
01
00
6D
75
15
0F
0D
01
10
16
6E
15
77
65
15
7D
7E
10
0F
69
11
7A
03
1B
7B
78
0B
16
09
0A
6F
75
15
0E
67
61
04
0B
74
75
0D
10
1F
1A
05
65
6C
75
66
6D
65
68
06
7C
7B
7F
6A
7A
7F
62
6E
66
02
74
61
09
7F
06
6F
74
6D
1E
1E
08
79
73
6F
7E
72
02
7A
7D
74
7D
7F
1A
69
6A
12
76
66
78
0A
7D
6D
16
78
65
0C
07
77
0B
70
63
73
67
7A
1B
16
75
7D
64
0D
7E
09
75
7E
78
65
18
64
64
6F
73
7A
63
64
7A
6A
72
05
19
05
6C
7E
0C
1A
63
71
66
70
65
71
74
72
78
6B
60
71
11
7A
73
6D
07
19
16
6A
12
18
7B
10
6C
08
1C
7F
02
7A
6F
7E
00
63
6A
0B
1E
07
72
19
68
09
78
04
0B
1A
68
17
19
79
7A
79
75
74
11
0B
65
6F
0F
01
00
04
5B
0B
68
01
6F
6D
64
19
03
04
6D
72
0C
6A
13
1B
65
1A
01
63
10
68
02
69
7B
04
6E
69
7C
7A
03
10
1C
70
0F
73
03
0E
22
74
79
14
64
05
0A
64
7D
76
6B
0A
6F
7E
78
67
78
7F
05
7C
16
06
55
11
15
15
0B
09
69
06
01
63
0A
78
06
7C
76
76
7D
73
02
04
7A
1A
1B
72
02
10
1A
67
05
6B
15
64
2A
7B
71
67
70
6D
6C
73
00
16
23
69
10
74
67
74
00
0F
77
68
6C
1B
01
00
0A
67
65
6C
08
1A
7C
67
00
24
6C
77
72
09
05
7B
72
65
76
6B
7E
12
7D
6F
68
0B
10
72
6B
0C
19
68
1A
0B
0F
08
7B
11
10
09
7E
1C
1A
67
78
07
07
61
01
7C
1E
77
69
00
6F
77
0B
7A
02
6F
0A
1F
0D
73
17
7A
65
65
7E
6F
15
5B
62
03
0A
2A
77
55
72
7A
66
05
71
7E
6F
1B
74
65
71
7E
11
04
6B
07
01
1A
7A
63
67
19
0D
08
02
72
0F
65
69
14
7C
02
0B
69
14
03
16
72
6F
62
6E
15
7D
6A
19
02
17
72
05
63
18
01
06
1B
69
77
65
65
09
08
03
7A
0E
02
13
29
6E
04
09
64
17
64
11
01
11
1C
72
12
6E
05
04
77
10
0B
65
07
6C
64
0F
6C
11
01
71
18
0C
73
03
5E
0B
0E
23
04
02
79
7A
7B
73
0C
12
7A
0E
79
7C
01
05
70
19
0A
7B
0E
6C
6A
5E
1E
0C
77
09
79
10
00
6D
12
05
0D
11
13
6E
69
61
6E
74
76
58
65
65
6E
7B
7B
7A
75
7F
14
10
15
15
7E
74
75
14
6A
65
7A
66
0E
26
7A
17
60
5C
1A
05
7B
15
07
11
0E
09
7A
7A
18
0D
14
01
70
1B
70
64
1F
6C
78
11
0A
77
0E
12
66
00
00
66
6A
1B
5F
6C
06
7A
10
00
05
19
7A
6E
12
09
73
11
64
7D
05
12
14
67
17
08
05
0B
67
72
1A
19
70
65
72
7F
6F
77
7A
78
13
1A
00
0D
06
00
65
63
0A
01
06
16
6C
0A
03
69
00
66
0D
0C
1F
11
6A
78
07
63
06
6A
71
03
7F
69
18
0D
7F
6E
1A
66
68
69
00
66
15
7D
01
15
6A
04
6F
16
65
76
7D
19
68
19
70
08
6F
74
19
12
14
16
75
07
0F
6E
01
0E
1A
01
67
7D
0C
7F
70
05
13
00
24
60
7C
72
03
0A
14
02
77
70
69
63
0F
7B
65
69
02
06
6E
7E
1B
7D
7B
6F
12
73
7D
00
10
0B
6A
02
08
68
72
10
7C
7C
6C
69
1E
13
01
7C
1A
7B
02
67
00
10
04
07
11
08
6B
78
6F
0F
7E
09
15
66
7E
69
07
6F
78
64
67
7C
67
13
07
74
15
6A
0F
73
69
0E
77
6B
66
10
6A
10
1A
07
01
15
7E
05
67
67
72
6D
6A
6A
1B
11
0A
75
01
16
16
6F
06
0A
67
7F
74
18
1B
77
69
0D
0A
7D
7F
12
0F
0A
04
14
0A
7B
63
17
10
1C
7A
02
64
0B
1C
6D
0C
67
7B
75
0A
1A
17
14
6C
6A
70
65
77
18
75
1B
7A
03
09
0F
04
0F
72
04
64
63
04
0B
71
00
74
62
7A
02
0E
22
08
6A
07
0A
08
71
07
17
00
65
78
69
0F
62
14
6E
13
0F
19
78
7F
1E
7C
7C
7B
08
6C
00
79
17
7B
0C
0F
6C
70
69
0A
77
7C
69
67
6B
02
66
03
7B
11
79
72
03
69
04
02
1A
1A
7A
0C
71
0D
19
20
07
78
7D
16
18
70
0C
00
70
7E
10
0A
65
70
64
75
7F
74
09
1A
0A
64
7B
03
01
68
0E
70
6D
6A
7E
09
70
62
00
00
10
62
71
17
73
0C
78
7C
1B
10
78
6C
72
08
19
15
70
1B
64
03
69
06
03
6B
7F
14
79
0B
16
75
7A
18
1A
7C
6F
09
77
19
64
6F
1C
73
79
70
12
6D
18
68
0C
00
7C
06
10
17
0B
19
6A
1B
66
7B
67
10
6C
68
19
03
06
66
00
7D
02
67
10
75
70
0A
09
68
77
78
76
12
09
6B
76
74
14
16
03
7A
6B
19
78
79
76
0C
79
07
0E
0B
10
6A
10
03
06
71
72
69
16
61
03
6B
68
1A
06
6E
76
71
00
6D
72
74
76
11
09
08
11
17
15
64
6D
0B
78
05
7A
6D
08
17
04
6A
07
68
06
09
65
7B
73
67
1B
78
17
68
03
0F
7D
12
10
08
68
09
74
72
15
77
72
73
00
69
0A
74
66
0E
62
15
70
78
05
7B
70
11
1C
07
7C
62
07
7A
67
01
6E
7D
0A
65
17
7E
0E
0C
79
6A
63
01
6A
15
1C
17
77
7C
15
01
1B
75
63
7C
66
1E
15
6A
05
02
02
06
19
79
0F
1C
1E
7F
7B
00
6E
64
19
75
08
04
03
71
7E
17
6A
0A
06
7B
68
65
67
6E
6C
05
77
08
12
00
0B
77
0E
6F
0B
67
7E
0D
0C
0E
79
13
19
67
7C
69
7D
0D
6C
66
14
66
0F
7D
7D
67
7E
19
04
00
68
68
78
19
7B
7C
6D
03
0F
7D
17
04
66
71
74
0B
16
1A
07
6D
14
0F
69
6D
78
0D
74
0A
71
69
0F
00
7F
7B
02
13
03
00
7D
6C
6E
01
0D
6F
77
67
6C
67
68
05
67
03
04
07
78
0E
16
18
0A
7F
0B
20
79
19
6B
18
1D
6D
0B
17
21
73
70
6C
19
18
73
15
07
17
63
00
76
04
14
08
6A
6C
76
62
0D
7C
01
06
1A
7B
19
70
6C
14
71
6F
19
7A
14
04
18
04
67
6A
73
70
72
13
10
7F
09
70
79
65
70
6E
78
7E
72
0B
15
6A
7F
01
05
08
0E
03
0F
7B
70
6D
68
04
77
73
0D
73
73
71
05
60
09
05
03
7D
68
09
13
6B
16
7D
6E
14
02
06
67
75
15
75
03
64
7B
0B
0E
06
6E
08
03
03
73
0B
62
65
75
7F
23
6B
00
7A
69
75
77
73
03
09
02
0F
00
0E
61
7F
78
6E
63
04
75
05
68
1A
22
0C
65
66
68
27
64
09
5D
7E
06
07
71
63
08
24
10
03
0C
72
1B
7E
68
69
6C
71
18
70
5A
12
0B
0B
13
6A
7A
73
19
78
1B
14
21
09
67
73
08
78
6B
6A
0E
16
15
01
67
73
64
13
0D
72
76
10
62
21
74
0D
0B
08
0F
72
7F
15
08
09
75
14
68
7C
7E
66
73
21
70
69
65
7F
73
6F
10
0A
77
15
71
67
61
6A
65
7C
0B
6C
64
11
11
13
10
15
21
14
0F
08
17
58
7C
6D
1B
05
77
75
10
7C
71
07
62
71
12
1C
07
17
10
15
15
02
04
73
7F
1A
69
0D
7F
19
69
16
76
07
07
74
04
7A
0C
02
0F
64
7F
14
02
77
7D
73
74
1A
11
7C
0D
10
10
66
67
72
05
65
05
6E
76
7D
69
03
01
13
7C
15
72
1A
0C
00
00
6A
5F
5E
17
7E
1A
25
73
05
7F
0F
12
7E
71
1A
17
6A
0A
0E
10
0F
00
5E
6C
7F
0A
76
64
16
63
6A
64
79
13
63
12
73
0B
78
7F
6D
11
0D
74
00
76
77
00
73
0D
06
19
77
74
70
1B
68
6D
7D
15
6E
0F
0C
76
6B
79
0A
0A
11
62
00
7A
65
7E
0F
6C
77
6F
6D
6C
68
71
04
7D
02
05
74
6D
00
07
11
08
7E
15
15
16
73
0B
7C
6A
70
08
73
77
05
16
62
6A
6F
76
6F
70
6F
01
0E
1A
6B
6C
01
68
09
69
73
7B
19
08
65
0E
13
17
13
67
0E
6F
01
02
10
10
0D
12
03
07
11
09
6F
5A
05
7A
02
12
0F
7A
7D
65
00
09
10
18
78
10
17
60
6D
1A
71
60
79
09
13
12
77
6D
13
00
69
73
74
0F
0A
18
79
01
11
7A
14
07
69
06
21
6F
73
64
0A
70
02
00
67
64
20
1B
05
21
7F
10
71
7D
1E
08
7E
70
6F
77
03
08
06
79
0A
75
61
6E
70
18
7F
17
70
70
64
0B
00
78
15
6A
7A
62
00
0B
7D
79
1A
17
75
24
71
7E
11
6C
62
7F
71
7A
11
24
77
19
7A
17
7E
75
64
64
09
7A
05
14
01
75
74
6F
6F
0D
0D
13
6A
5F
1D
04
0C
6E
76
6D
20
69
70
1C
05
67
68
6E
00
73
08
0A
72
68
67
13
02
76
7A
18
7A
14
10
6E
14
7A
69
74
15
7A
7C
73
15
1C
67
15
72
04
73
65
6C
6E
1A
05
0D
6D
1C
03
06
1F
6D
68
6B
7E
69
6E
19
7D
7D
0C
19
7C
6F
03
0B
06
08
00
74
7C
1A
73
77
06
6D
13
7D
74
7E
02
0C
6E
63
09
6C
63
02
13
74
19
18
1C
09
18
7A
77
1C
6F
78
64
03
7C
17
67
64
17
6F
14
68
7E
7B
64
6B
70
7C
03
6A
0E
7C
18
0E
1A
16
15
68
6E
08
04
1B
13
68
6E
6C
05
7A
19
7C
0C
19
01
7A
1C
74
1A
66
64
05
1A
72
03
67
6B
7E
1C
15
76
73
74
02
69
1E
12
70
1B
13
10
7E
07
14
67
11
62
02
14
64
09
7D
72
0B
72
76
6C
79
07
77
69
07
67
6E
76
13
7F
1B
0B
0A
7A
03
02
61
18
1A
06
6D
07
0A
6A
67
6B
08
66
6B
03
01
10
7E
05
66
0E
06
67
14
64
1A
07
0B
06
0E
69
13
68
09
00
0A
04
0B
79
6E
0A
0B
70
0A
0D
09
64
75
0E
10
78
0A
73
08
14
75
14
78
0D
62
11
64
6A
16
04
11
6D
01
61
09
0B
64
19
66
76
7C
75
75
0A
67
0F
02
11
67
09
69
7F
7C
7C
6E
0A
03
6D
79
13
68
0F
74
6D
13
0A
05
68
18
18
6D
6C
13
0A
03
0F
1C
0B
10
12
7B
21
14
79
77
78
18
7A
63
0B
72
00
1A
12
62
16
6A
62
00
16
14
12
19
61
7E
6A
67
03
1A
6C
19
1B
0F
09
19
04
01
76
05
18
14
0F
77
71
0F
7A
6A
12
0D
04
13
0D
13
6C
15
10
7E
7A
19
74
73
63
1A
72
19
18
7B
13
05
10
6C
1B
19
0F
7A
74
7E
01
02
62
13
0D
6C
75
65
17
72
72
78
03
79
07
7B
03
79
13
0C
05
17
72
01
1C
15
7B
16
11
62
64
7F
08
61
20
1A
7D
7D
6D
09
0A
6D
12
73
0E
00
0D
73
1A
08
75
6B
7A
06
76
78
67
19
72
01
67
0C
13
1D
11
67
08
1D
7D
65
74
76
7D
64
6C
67
0B
05
64
00
12
17
71
06
18
07
13
0D
14
01
01
0E
68
69
6B
73
71
0F
68
76
07
10
0A
13
17
12
00
0C
11
64
06
04
72
01
0E
79
16
6C
7C
0D
04
7D
17
11
67
76
69
0F
72
63
64
04
12
03
16
76
71
62
19
08
79
71
7F
11
7B
71
15
78
73
74
63
66
72
18
6E
7E
6C
72
7A
16
02
67
7B
01
1D
13
66
72
6B
10
78
7D
70
7D
01
73
71
66
78
05
68
17
61
02
75
77
6D
14
19
76
1C
73
12
13
0B
14
77
65
0A
05
75
1C
61
79
77
1A
10
6C
12
6D
67
7D
67
63
74
73
71
17
0C
71
04
01
6F
1C
71
75
02
7B
6D
76
0D
16
7F
1B
77
7D
6A
09
64
17
15
6B
79
1F
6F
7F
77
14
6E
1F
03
7D
73
7C
0C
1D
79
68
15
01
7E
7E
64
00
06
67
62
7E
6C
1C
74
6F
6D
77
08
0D
0E
11
15
11
1C
07
67
04
0A
6F
09
00
11
7E
02
13
07
7F
14
7F
00
07
1B
11
6F
68
1A
15
07
01
6A
02
1F
0E
78
02
07
6A
16
64
6A
7F
68
7D
7A
0C
12
6E
7E
7A
18
6E
0A
04
0C
03
78
6D
08
12
1A
63
09
1B
7B
10
1A
75
6A
1C
73
18
71
18
10
7F
0D
1A
1B
0C
7F
77
6C
08
13
0A
67
11
01
1A
07
08
6B
04
06
6A
21
01
13
0D
7F
7D
6F
11
18
0D
00
6B
05
08

